<unk>	0
<s>	0
</s>	0
,	-2.70206
:	-3.3494
.	-3.61709
▁the	-3.98393
▁I	-3.98567
'	-4.00567
s	-4.14505
▁to	-4.26106
▁and	-4.35942
;	-4.39509
▁of	-4.48194
▁you	-4.63156
▁a	-4.66724
▁my	-4.69674
?	-4.78485
▁in	-4.88696
!	-4.91546
▁	-4.93134
d	-4.93662
▁that	-4.99614
▁And	-5.0265
▁not	-5.03173
▁is	-5.03727
▁me	-5.10015
▁be	-5.16034
▁it	-5.21063
▁with	-5.22119
▁your	-5.26734
▁for	-5.29522
▁his	-5.32887
▁have	-5.38598
▁he	-5.40677
▁this	-5.44181
▁him	-5.49841
▁thou	-5.50427
-	-5.67048
▁as	-5.68435
▁will	-5.71933
▁so	-5.72315
▁thy	-5.73065
ing	-5.76585
▁but	-5.78723
▁The	-5.8144
▁'	-5.85613
▁To	-5.86354
O	-5.89038
▁all	-5.89448
▁O	-5.89905
▁her	-5.91175
▁thee	-5.96326
▁we	-5.96612
▁by	-5.97451
IO	-5.97582
▁shall	-5.97839
▁do	-5.97884
▁are	-6.01727
▁our	-6.0229
▁no	-6.0529
▁That	-6.08172
▁A	-6.09408
▁what	-6.11056
ll	-6.11689
▁on	-6.12096
▁But	-6.18224
▁good	-6.23789
er	-6.24538
▁What	-6.26514
t	-6.26542
KING	-6.26988
ed	-6.27581
▁from	-6.31217
▁B	-6.33262
▁more	-6.34472
▁at	-6.37817
▁if	-6.38032
▁For	-6.38421
▁now	-6.38431
▁sir	-6.40159
R	-6.40161
st	-6.40755
▁S	-6.40873
▁lord	-6.41623
▁was	-6.42089
▁them	-6.42939
▁would	-6.4471
▁she	-6.47437
▁their	-6.47808
▁am	-6.47982
▁they	-6.50659
▁My	-6.51166
▁here	-6.51361
▁love	-6.52919
ly	-6.54073
▁C	-6.54542
▁say	-6.57303
▁us	-6.57641
▁or	-6.57873
▁then	-6.58186
▁come	-6.58479
▁man	-6.62704
LO	-6.634
▁well	-6.63438
▁one	-6.6429
▁king	-6.65016
▁let	-6.65639
▁hath	-6.65891
IUS	-6.65903
▁make	-6.6636
▁know	-6.66547
▁As	-6.66561
▁may	-6.68647
▁G	-6.69143
▁You	-6.71856
▁were	-6.72872
▁must	-6.74858
ET	-6.75268
▁than	-6.75342
▁VI	-6.76231
▁like	-6.77006
NCE	-6.77117
Y	-6.77342
▁should	-6.78092
y	-6.78489
▁upon	-6.79229
▁father	-6.79266
▁there	-6.7983
▁an	-6.80603
n	-6.82062
▁He	-6.82085
US	-6.84405
▁death	-6.85479
▁had	-6.85725
▁which	-6.86466
▁If	-6.87484
▁go	-6.87635
▁see	-6.88322
▁did	-6.91329
F	-6.92416
▁DUKE	-6.92505
▁how	-6.92574
▁too	-6.93163
S	-6.93839
▁yet	-6.93928
▁up	-6.95322
▁RICHARD	-6.96392
▁speak	-6.96703
▁F	-6.97478
▁Which	-6.97844
▁when	-6.97845
▁out	-6.98133
▁With	-6.98194
▁some	-6.98227
▁P	-6.99689
▁mine	-6.99696
▁time	-7.01203
▁M	-7.01852
▁Why	-7.02716
▁God	-7.04294
▁such	-7.04655
▁First	-7.05044
▁give	-7.07436
▁R	-7.07799
▁these	-7.08339
A	-7.08718
▁No	-7.09855
▁In	-7.09989
▁heart	-7.10344
▁son	-7.10775
▁can	-7.11033
▁take	-7.11443
--	-7.11791
▁So	-7.12109
▁life	-7.12803
▁How	-7.12811
▁Come	-7.13236
e	-7.13576
▁Of	-7.13693
ES	-7.13771
RY	-7.13879
ABE	-7.13983
▁This	-7.14961
▁brother	-7.15146
▁Who	-7.15177
▁hear	-7.16279
▁tell	-7.16792
▁We	-7.17585
▁Thou	-7.18937
STE	-7.19891
UCE	-7.21025
▁think	-7.21665
▁QUEEN	-7.21678
▁most	-7.23109
▁much	-7.23558
▁Lord	-7.24391
▁made	-7.25312
▁T	-7.25418
th	-7.25878
▁art	-7.26208
tis	-7.26737
▁o	-7.26899
▁Now	-7.27419
▁LA	-7.30474
▁never	-7.31419
HEN	-7.31798
▁men	-7.33468
▁blood	-7.34974
▁fair	-7.3539
▁name	-7.35658
▁Your	-7.35676
▁Y	-7.35733
RK	-7.35754
▁any	-7.36343
▁day	-7.36449
▁true	-7.37363
▁Or	-7.37387
IN	-7.37706
▁where	-7.38267
▁cannot	-7.38303
▁Where	-7.38821
▁hand	-7.38946
▁PET	-7.40128
EN	-7.4047
▁been	-7.4086
▁honour	-7.41214
▁EDWARD	-7.41642
▁doth	-7.43081
▁again	-7.43188
UM	-7.43792
▁AN	-7.4392
▁own	-7.43936
▁noble	-7.4406
▁LUC	-7.44566
▁done	-7.45127
▁It	-7.45313
▁Be	-7.45737
▁un	-7.47285
▁look	-7.4768
▁When	-7.48107
▁who	-7.48568
OME	-7.49681
▁Edward	-7.49906
▁very	-7.49906
▁Ay	-7.50394
AP	-7.50407
▁world	-7.50525
▁both	-7.50526
▁before	-7.50569
▁sweet	-7.50748
▁queen	-7.51145
▁By	-7.51506
▁Let	-7.51773
▁way	-7.52098
,--	-7.52378
▁call	-7.52571
TH	-7.52735
UCH	-7.53037
I	-7.5309
▁great	-7.53405
▁Then	-7.53644
▁night	-7.53864
MENE	-7.55347
▁nor	-7.55595
▁leave	-7.56019
▁myself	-7.56276
▁fear	-7.56573
▁CORIOLANUS	-7.58245
▁thus	-7.58245
UL	-7.58668
econd	-7.58895
▁being	-7.59051
▁AU	-7.59099
▁grace	-7.59511
NG	-7.59982
▁other	-7.60102
OLI	-7.60303
▁mother	-7.60959
▁down	-7.60959
▁eyes	-7.61182
▁LE	-7.61407
▁heaven	-7.61476
▁old	-7.6171
▁live	-7.61919
▁hast	-7.62259
N	-7.63062
▁wife	-7.64467
▁Do	-7.64511
▁Go	-7.64742
▁die	-7.64842
▁poor	-7.65844
▁bear	-7.65973
▁J	-7.65983
re	-7.66536
▁head	-7.66537
D	-7.66549
▁away	-7.6662
▁dead	-7.67195
▁ever	-7.67306
▁Than	-7.67339
INA	-7.67993
II	-7.68152
▁pray	-7.68612
NTI	-7.68714
▁stay	-7.68819
▁Is	-7.69311
▁many	-7.69891
▁Warwick	-7.71077
▁friends	-7.7129
▁His	-7.71946
LL	-7.72423
NT	-7.72574
Tis	-7.72607
ONT	-7.72895
ULI	-7.72897
▁comes	-7.73361
▁daughter	-7.73369
▁soul	-7.73398
▁word	-7.73452
▁EL	-7.74009
▁nothing	-7.74205
▁stand	-7.74647
▁Romeo	-7.75764
▁house	-7.75864
▁Well	-7.7614
▁Here	-7.76545
▁better	-7.76578
▁Nay	-7.7735
▁gone	-7.77386
RAN	-7.77614
B	-7.77758
l	-7.78207
VOL	-7.79867
WI	-7.80638
▁off	-7.81355
▁long	-7.81362
▁crown	-7.81395
▁news	-7.81629
▁against	-7.82148
▁those	-7.82332
▁thing	-7.82596
▁little	-7.83185
▁Citizen	-7.83322
▁face	-7.83687
r	-7.83792
▁Not	-7.83948
▁rest	-7.84151
▁There	-7.84404
▁two	-7.84917
▁set	-7.86019
IC	-7.86049
▁still	-7.86679
▁Sir	-7.86742
▁GRE	-7.86769
▁hence	-7.86985
▁duke	-7.87572
▁himself	-7.87583
est	-7.87801
▁hope	-7.87924
▁part	-7.88988
▁Richard	-7.89382
▁MAR	-7.89423
▁peace	-7.90303
▁unto	-7.9031
▁therefore	-7.90312
M	-7.90626
▁first	-7.91225
▁put	-7.91245
▁till	-7.92166
▁Have	-7.92194
▁tongue	-7.92448
▁E	-7.92685
en	-7.92831
▁though	-7.9292
▁Thy	-7.93128
▁York	-7.94055
EL	-7.94117
KE	-7.94337
▁words	-7.95008
▁else	-7.95017
▁cause	-7.95017
▁thine	-7.95023
NI	-7.95103
▁power	-7.95352
▁might	-7.95874
▁home	-7.96061
▁Henry	-7.96968
▁Yet	-7.97001
▁Ha	-7.97563
▁could	-7.97778
NE	-7.97978
▁Good	-7.9798
▁She	-7.98219
UC	-7.98233
▁back	-7.9838
▁best	-7.98768
▁earth	-7.98833
▁husband	-7.98943
▁lady	-7.98968
▁keep	-7.99237
CK	-7.99976
▁Will	-7.9998
▁people	-7.99988
▁bid	-8.00504
▁master	-8.00522
WAR	-8.00605
▁Shall	-8.00997
ASTI	-8.01013
RUT	-8.01657
▁young	-8.01848
▁II	-8.01891
▁prince	-8.02195
▁mean	-8.02395
▁find	-8.02517
IV	-8.02628
▁All	-8.02679
▁Nurse	-8.03066
▁why	-8.03077
▁show	-8.03242
▁dear	-8.03634
▁said	-8.04115
▁none	-8.04158
▁forth	-8.0418
▁once	-8.04188
▁They	-8.05158
▁every	-8.05342
GE	-8.05888
▁gentle	-8.06154
es	-8.06427
MIO	-8.0654
LY	-8.07308
▁Rome	-8.07328
ous	-8.07652
▁hands	-8.08222
▁H	-8.08358
rom	-8.08441
▁bring	-8.08752
BR	-8.09596
less	-8.09614
▁war	-8.09933
▁right	-8.10064
HA	-8.10581
▁whose	-8.10717
▁need	-8.10901
▁lords	-8.1108
▁tears	-8.11112
▁mind	-8.11144
▁thought	-8.11634
▁since	-8.11814
▁place	-8.12609
▁King	-8.1296
▁pardon	-8.13025
GAR	-8.1303
▁shame	-8.13602
▁eye	-8.13811
▁came	-8.13932
▁answer	-8.14127
▁Our	-8.14175
▁PA	-8.14424
▁help	-8.14841
▁heard	-8.14873
C	-8.14984
▁state	-8.15311
▁ere	-8.15325
▁last	-8.15326
AMILL	-8.15983
▁kill	-8.16504
▁friend	-8.17197
▁whom	-8.17752
▁i	-8.18228
▁full	-8.188
▁KAT	-8.18913
▁cousin	-8.18919
▁Nor	-8.19038
▁sun	-8.20132
▁hither	-8.20148
▁Clarence	-8.20153
▁about	-8.20308
HAR	-8.2031
OM	-8.21041
▁boy	-8.21079
▁royal	-8.2139
▁Marcius	-8.21398
▁gentleman	-8.2142
▁prove	-8.21421
a	-8.21941
▁thousand	-8.22269
LE	-8.22808
▁into	-8.22873
CAL	-8.23102
▁Duke	-8.23947
▁comfort	-8.2397
▁gracious	-8.2397
▁please	-8.24506
▁lie	-8.24852
▁sorrow	-8.24955
▁child	-8.25259
RIA	-8.25839
▁less	-8.26075
AND	-8.26315
▁new	-8.26364
▁far	-8.26861
▁meet	-8.27757
▁grave	-8.27809
▁DUCHESS	-8.27894
▁wilt	-8.27894
or	-8.28135
m	-8.28397
▁hour	-8.29048
▁body	-8.29245
▁woman	-8.29248
ERC	-8.29444
▁dost	-8.2959
ness	-8.29763
▁end	-8.30448
▁Angelo	-8.30615
ON	-8.31095
▁makes	-8.31116
▁joy	-8.31667
▁talk	-8.31688
▁light	-8.31849
▁fellow	-8.31875
▁use	-8.31971
▁after	-8.31985
▁indeed	-8.32004
▁another	-8.32007
▁Eve	-8.3268
ROS	-8.3269
RE	-8.33082
▁grief	-8.33211
▁fortune	-8.33237
▁Provost	-8.33412
▁Would	-8.33417
AN	-8.33759
▁fall	-8.34013
▁has	-8.34086
▁even	-8.34628
▁HORTENSI	-8.34841
▁matter	-8.34852
▁hate	-8.35525
▁hold	-8.35854
▁Upon	-8.36292
▁three	-8.36307
se	-8.37237
ful	-8.37257
▁welcome	-8.37761
▁rather	-8.37761
▁Take	-8.37834
▁years	-8.38314
E	-8.38391
morrow	-8.38437
▁sea	-8.38726
▁follow	-8.38805
▁Murder	-8.39253
▁business	-8.39254
▁truth	-8.39256
▁play	-8.39263
▁Give	-8.39281
TO	-8.40378
▁fight	-8.40418
▁thank	-8.40592
▁Third	-8.40768
▁shalt	-8.40768
▁CLA	-8.40769
▁More	-8.40795
L	-8.40976
▁wish	-8.41902
▁only	-8.42197
▁kind	-8.42258
▁Kate	-8.42307
▁nature	-8.42307
▁lies	-8.42437
▁over	-8.4331
▁sleep	-8.4341
▁arms	-8.43619
▁wrong	-8.43652
in	-8.43694
▁NOR	-8.4387
▁lay	-8.43893
▁law	-8.43896
UT	-8.44709
day	-8.44864
▁seem	-8.45305
▁high	-8.45393
PER	-8.45419
▁enough	-8.45458
▁pity	-8.45461
▁proud	-8.45475
▁holy	-8.45554
TA	-8.4611
▁GR	-8.46311
▁D	-8.46679
ENT	-8.47381
RI	-8.47397
▁bed	-8.48416
▁ne	-8.48529
▁present	-8.48563
▁pass	-8.48623
▁Servant	-8.48709
▁foul	-8.48709
▁get	-8.48712
▁Were	-8.48884
ion	-8.48985
▁gods	-8.49168
▁within	-8.49292
▁swear	-8.5005
▁land	-8.50281
▁sovereign	-8.50369
▁POMP	-8.50376
▁happy	-8.50376
▁saw	-8.50376
▁mistress	-8.50376
▁madam	-8.50388
▁lives	-8.5055
▁Was	-8.50925
▁breath	-8.50972
▁false	-8.51903
▁beseech	-8.5207
▁city	-8.5208
▁send	-8.5218
▁turn	-8.53353
▁things	-8.53481
▁country	-8.53773
▁Look	-8.53797
▁Say	-8.53834
▁late	-8.5388
▁while	-8.53961
▁fire	-8.53968
▁horse	-8.53993
▁At	-8.54234
▁An	-8.54298
▁means	-8.54688
TIS	-8.54854
▁L	-8.54887
▁doubt	-8.55263
▁England	-8.55549
▁Servi	-8.55553
▁yourself	-8.55578
▁traitor	-8.55739
▁bloody	-8.55925
ER	-8.56568
ngman	-8.57324
▁sister	-8.57332
▁villain	-8.57492
▁BI	-8.57832
▁save	-8.58379
BER	-8.58485
▁Clow	-8.58602
▁children	-8.59156
▁May	-8.59176
▁Did	-8.5918
▁Though	-8.59184
▁Her	-8.59197
▁break	-8.59319
URE	-8.59337
▁sword	-8.59412
▁arm	-8.6008
▁looks	-8.60206
▁mad	-8.60825
▁majesty	-8.61005
▁purpose	-8.61005
▁Therefore	-8.61014
▁left	-8.61036
▁Tybalt	-8.6104
▁Ah	-8.61086
OND	-8.61097
▁uncle	-8.61241
▁maid	-8.61372
gainst	-8.61702
▁On	-8.6242
CLIFF	-8.62892
▁warrant	-8.629
TES	-8.6321
▁care	-8.63275
▁seen	-8.63526
▁told	-8.6421
▁sound	-8.6476
▁farewell	-8.64823
▁mercy	-8.64828
ID	-8.64978
▁does	-8.65299
▁sit	-8.65804
▁kiss	-8.66378
▁court	-8.66772
▁heavy	-8.66775
▁marry	-8.66789
ill	-8.66851
▁gold	-8.66891
▁together	-8.66899
us	-8.66912
eth	-8.67006
▁without	-8.67035
al	-8.67881
▁believe	-8.67977
▁days	-8.68535
▁re	-8.6873
▁Clifford	-8.68775
▁PRINCE	-8.68775
▁Some	-8.68819
▁lost	-8.68834
▁sin	-8.69106
▁oath	-8.69204
▁spirit	-8.6921
▁woe	-8.69212
▁ill	-8.69914
▁ears	-8.70154
▁Had	-8.70212
▁strange	-8.70553
▁age	-8.70801
ORD	-8.70806
▁Bolingbroke	-8.70816
▁justice	-8.70819
▁liege	-8.7082
▁pluck	-8.70825
▁thyself	-8.70837
▁Tell	-8.70856
▁weep	-8.70973
▁haste	-8.71195
▁common	-8.71272
▁air	-8.71651
IAN	-8.71953
le	-8.7197
▁nurse	-8.72092
▁person	-8.72406
▁return	-8.72687
▁through	-8.7273
▁free	-8.7275
▁Away	-8.729
▁Signior	-8.729
▁Juliet	-8.729
▁Should	-8.729
▁One	-8.73099
▁reason	-8.73426
GON	-8.7383
▁touch	-8.74097
ld	-8.74258
▁Can	-8.74284
▁desire	-8.74312
p	-8.74727
▁remember	-8.74805
▁report	-8.74821
▁faith	-8.74859
▁deep	-8.74864
▁friar	-8.75027
▁Farewell	-8.75037
▁ground	-8.75052
▁fly	-8.75069
▁soon	-8.75139
▁content	-8.75354
▁service	-8.75599
▁dream	-8.7561
▁fault	-8.7562
▁sight	-8.75657
▁foot	-8.76907
▁near	-8.76934
▁banish	-8.77
▁cold	-8.77072
▁ask	-8.77159
▁loss	-8.77167
▁France	-8.77201
▁Like	-8.77201
▁Senator	-8.77201
▁straight	-8.77201
▁slain	-8.77203
▁Master	-8.77206
▁sent	-8.77206
▁general	-8.7721
▁Pray	-8.7722
▁under	-8.77228
▁command	-8.77515
▁curse	-8.78595
V	-8.79116
▁revenge	-8.79256
▁tender	-8.7926
▁beauty	-8.79423
▁alone	-8.79424
▁widow	-8.79449
▁open	-8.7945
▁married	-8.79458
essenger	-8.79463
▁times	-8.79591
▁worthy	-8.79612
▁These	-8.79878
▁charge	-8.81553
▁Claudio	-8.81696
▁brought	-8.81697
▁enemy	-8.81706
▁ready	-8.81788
▁born	-8.8179
ers	-8.81805
▁wear	-8.82038
▁fool	-8.82038
TON	-8.8213
▁mark	-8.824
▁ear	-8.8247
▁sure	-8.8254
ies	-8.82652
man	-8.82714
ir	-8.8315
on	-8.83549
▁ho	-8.83637
▁found	-8.83978
▁duty	-8.84023
▁lose	-8.84031
▁itself	-8.84062
▁past	-8.84076
▁Make	-8.84103
▁See	-8.8413
o	-8.84488
▁Montague	-8.84697
▁deed	-8.8487
▁canst	-8.84983
ERS	-8.85472
able	-8.85643
▁SE	-8.85986
▁cry	-8.86076
▁fast	-8.86156
▁prison	-8.86188
▁beat	-8.86381
▁Shepherd	-8.86403
▁MARCIUS	-8.86403
▁strike	-8.86413
▁Madam	-8.86413
▁tale	-8.86414
▁twenty	-8.8643
▁fearful	-8.86618
▁hours	-8.86769
▁says	-8.87024
▁thoughts	-8.873
▁ye	-8.87393
uch	-8.87415
an	-8.87973
▁seek	-8.8851
▁ha	-8.88662
entleman	-8.88689
▁honest	-8.88727
▁sad	-8.88815
▁Camillo	-8.88842
▁half	-8.88842
▁marriage	-8.88842
▁field	-8.88863
OW	-8.8889
▁work	-8.88934
▁e	-8.89341
▁heir	-8.9018
▁change	-8.90602
night	-8.90651
CA	-8.90831
▁brave	-8.90963
▁stands	-8.91263
▁Gloucester	-8.9134
▁Buckingham	-8.91342
▁pleasure	-8.91342
▁Hastings	-8.91343
▁each	-8.91346
▁cut	-8.91356
▁bound	-8.91478
▁serve	-8.91511
▁yield	-8.91698
▁CA	-8.92161
▁point	-8.92285
▁known	-8.92392
▁side	-8.92394
▁course	-8.9372
▁trust	-8.93801
▁Norfolk	-8.93906
▁company	-8.93906
▁watch	-8.93906
▁women	-8.93917
▁title	-8.93917
▁something	-8.93944
▁highness	-8.93946
▁Thus	-8.93947
ixt	-8.94034
MER	-8.94057
▁worse	-8.94124
▁counsel	-8.94787
rt	-8.9511
▁voices	-8.9513
▁W	-8.95187
▁Mo	-8.95667
▁learn	-8.9599
▁deliver	-8.96239
▁hell	-8.96378
▁strength	-8.96496
▁Lucentio	-8.96537
▁knew	-8.96537
▁sake	-8.96544
▁gentlemen	-8.96549
▁loving	-8.96568
ward	-8.97314
▁rich	-8.9771
OP	-8.97716
▁didst	-8.97869
▁ten	-8.98122
ALO	-8.98334
▁run	-8.98354
▁issue	-8.98434
▁knows	-8.98447
g	-8.98471
▁become	-8.98475
▁Lancaster	-8.9924
▁enemies	-8.9924
▁Marry	-8.99255
▁dare	-8.99401
▁Un	-8.99572
▁close	-8.99621
▁attend	-8.99688
▁devil	-9.00305
▁water	-9.00498
▁wind	-9.00601
▁woo	-9.0091
▁yours	-9.00924
▁order	-9.01901
▁read	-9.01957
▁battle	-9.02015
▁Lady	-9.02018
▁next	-9.02018
▁Bianca	-9.02018
▁pale	-9.0204
▁coming	-9.02071
▁HER	-9.02138
▁gates	-9.02535
▁heavens	-9.02713
▁withal	-9.02832
▁draw	-9.03008
▁bosom	-9.03165
▁wit	-9.03363
▁hearts	-9.03407
DIO	-9.03805
▁hang	-9.04341
▁enter	-9.04506
LAU	-9.04626
▁confess	-9.04822
▁patience	-9.04875
▁themselves	-9.04875
▁harm	-9.04879
▁gave	-9.04882
▁either	-9.04884
▁jest	-9.04887
ERDI	-9.04922
▁youth	-9.04938
▁thanks	-9.04946
▁met	-9.05357
▁lips	-9.05454
▁murder	-9.05507
▁virtue	-9.06179
▁foe	-9.06243
ry	-9.06246
AM	-9.0653
▁bold	-9.07637
▁souls	-9.07808
▁Aufidius	-9.07816
▁Petruchio	-9.07816
▁Tranio	-9.07816
▁forget	-9.07816
▁Call	-9.07817
▁Since	-9.07817
▁sworn	-9.07818
▁further	-9.0782
▁speed	-9.07821
▁throw	-9.07844
▁LORD	-9.07846
twere	-9.07865
▁took	-9.07907
twas	-9.07912
▁merry	-9.07928
▁along	-9.07949
▁same	-9.08076
BRA	-9.0816
▁MI	-9.08248
DA	-9.08794
▁office	-9.09152
▁subject	-9.09262
TI	-9.10222
▁strong	-9.10478
▁entreat	-9.10484
▁mock	-9.10494
▁hard	-9.10596
▁grant	-9.10652
▁quarrel	-9.10834
▁consul	-9.10843
▁JOHN	-9.10846
▁request	-9.10846
▁worship	-9.10847
▁Hereford	-9.10852
▁already	-9.10863
▁dangerous	-9.10866
▁often	-9.10868
▁Alas	-9.10883
▁self	-9.10919
▁morning	-9.10929
like	-9.11464
▁given	-9.11688
▁want	-9.12021
▁suit	-9.12278
▁t	-9.12327
▁promise	-9.13266
▁feel	-9.13657
▁consent	-9.13749
▁Richmond	-9.13972
▁Speak	-9.13972
▁between	-9.13974
▁Tower	-9.13975
▁neither	-9.13986
▁Before	-9.13995
T	-9.14001
▁black	-9.14009
▁case	-9.1404
▁goes	-9.14067
em	-9.14073
▁wounds	-9.14608
▁Yes	-9.14648
▁wonder	-9.1504
▁fit	-9.15105
▁soldiers	-9.15167
▁bad	-9.15598
STA	-9.16417
▁worth	-9.16494
▁just	-9.1703
▁spoke	-9.17087
▁speech	-9.17158
▁Because	-9.17197
▁presence	-9.17197
▁Must	-9.17198
▁having	-9.17199
▁Welcome	-9.17211
▁Unless	-9.17234
▁thence	-9.17452
▁hot	-9.17465
▁appear	-9.18627
▁begin	-9.18941
▁voice	-9.18969
▁rage	-9.19219
▁poison	-9.2051
▁London	-9.20531
▁throne	-9.20531
▁Keep	-9.20531
▁Both	-9.20537
▁Margaret	-9.20545
▁Saint	-9.20551
▁deny	-9.20552
▁pay	-9.20561
▁Coriolanus	-9.2057
▁post	-9.2062
▁offence	-9.20647
▁mighty	-9.20926
ther	-9.21012
SH	-9.21491
▁move	-9.21567
▁breast	-9.22281
▁vow	-9.22364
▁wise	-9.2261
▁ta	-9.22661
▁behold	-9.2276
▁win	-9.23033
▁dis	-9.23516
▁seems	-9.23904
BALT	-9.23979
▁George	-9.23979
▁Paris	-9.23979
▁moon	-9.23979
▁Baptista	-9.23979
▁buy	-9.23997
▁ancient	-9.23998
▁Lest	-9.24059
▁bawd	-9.24067
▁Ere	-9.24162
ity	-9.24203
▁wash	-9.24258
▁princely	-9.24471
▁prayers	-9.24868
▁wars	-9.25379
AG	-9.25421
age	-9.25715
▁Roman	-9.25922
w	-9.26249
▁deeds	-9.26326
▁sons	-9.26532
AU	-9.26743
ation	-9.26889
▁brief	-9.2738
▁soft	-9.27408
▁plain	-9.27413
▁mortal	-9.27538
▁valiant	-9.2755
▁Stand	-9.2755
▁kingdom	-9.27551
▁flesh	-9.27551
▁fetch	-9.27551
▁usurp	-9.27566
▁defend	-9.27567
▁fresh	-9.27675
▁hide	-9.27708
as	-9.27868
▁presently	-9.27872
▁offer	-9.28495
▁c	-9.28751
▁base	-9.29445
▁slave	-9.29616
ling	-9.30865
▁suffer	-9.30906
▁cross	-9.31216
UE	-9.31254
▁Oxford	-9.31254
▁prithee	-9.31254
▁Hortensio	-9.31254
▁least	-9.31254
▁slaughter	-9.31255
▁Think	-9.31265
▁walk	-9.3127
▁lack	-9.3136
▁fine	-9.31433
▁tribunes	-9.31466
▁loved	-9.31588
▁forward	-9.31977
▁TY	-9.3216
▁loves	-9.32808
ting	-9.32828
▁grow	-9.32954
▁chance	-9.33386
▁got	-9.33623
▁faults	-9.34029
ILI	-9.34706
b	-9.34866
▁visit	-9.34951
▁fie	-9.35071
▁Bohemia	-9.351
▁Katharina	-9.351
▁Northumberland	-9.351
▁Pompey	-9.351
▁shepherd	-9.351
▁nay	-9.351
▁pretty	-9.351
▁thither	-9.35102
▁Hark	-9.35122
▁dishonour	-9.35142
▁almost	-9.35167
▁whence	-9.35194
▁heads	-9.35649
ce	-9.36492
▁subjects	-9.37156
▁weak	-9.37345
▁tear	-9.37538
it	-9.38129
▁drink	-9.38757
▁short	-9.3891
▁patient	-9.38929
▁cheer	-9.38973
UR	-9.39014
RG	-9.39019
▁certain	-9.39046
▁blow	-9.39065
▁safe	-9.39065
▁Sweet	-9.391
▁birth	-9.391
▁glad	-9.391
▁virtuous	-9.391
▁living	-9.391
▁fill	-9.39108
▁slander	-9.39116
▁chamber	-9.39116
▁Peace	-9.39118
▁neck	-9.39119
▁match	-9.39148
▁perform	-9.39149
▁awhile	-9.39161
▁quickly	-9.39201
▁Hold	-9.39233
▁wert	-9.39503
▁toward	-9.39692
AR	-9.39861
▁beg	-9.40431
out	-9.40804
▁march	-9.40828
▁feast	-9.41177
▁act	-9.41253
▁hadst	-9.4128
ate	-9.41379
▁knee	-9.41506
▁knock	-9.41599
▁frown	-9.41616
▁soldier	-9.41705
▁mouth	-9.41707
▁book	-9.41709
▁piece	-9.41717
▁town	-9.41773
▁year	-9.41792
▁hearing	-9.42063
▁music	-9.42127
▁kings	-9.42247
ance	-9.42396
▁flatter	-9.42537
▁goodly	-9.42564
AT	-9.43025
▁four	-9.43182
▁Isabel	-9.43266
▁witness	-9.43267
▁angry	-9.43267
▁womb	-9.43267
▁quo	-9.43269
▁slew	-9.43278
▁measure	-9.43289
▁hap	-9.433
▁Stay	-9.43317
▁treason	-9.43321
▁guilty	-9.43327
▁Yea	-9.43328
▁worst	-9.4333
▁lawful	-9.43331
▁kneel	-9.43436
▁g	-9.43509
et	-9.43597
▁seat	-9.43661
▁deserved	-9.43747
ave	-9.43918
▁weeping	-9.43918
▁greater	-9.44587
▁blows	-9.44898
▁form	-9.44948
▁stir	-9.45721
▁sense	-9.45914
▁While	-9.45948
▁servant	-9.45981
▁letter	-9.46107
▁prisoner	-9.46209
▁dog	-9.46347
RIS	-9.46549
▁wast	-9.4696
▁breathe	-9.46969
▁won	-9.47311
▁labour	-9.47392
▁sudden	-9.47459
▁join	-9.47486
▁sick	-9.47533
▁Gremio	-9.47615
▁Grumio	-9.47615
▁Padua	-9.47615
▁Plantagenet	-9.47615
▁Watch	-9.47615
▁because	-9.47615
▁encounter	-9.47615
▁liberty	-9.47615
▁ourselves	-9.47615
▁steel	-9.47615
▁behind	-9.47615
▁ladies	-9.4762
▁dance	-9.4762
▁stain	-9.47626
▁five	-9.47636
▁banishment	-9.47647
▁forbid	-9.4765
▁noise	-9.47663
▁doom	-9.47696
▁rough	-9.47713
▁fled	-9.47726
▁Out	-9.47741
▁second	-9.4775
▁warm	-9.47841
ither	-9.47932
▁clouds	-9.47938
▁Th	-9.48218
ould	-9.48596
ck	-9.48989
▁letters	-9.49231
▁scorn	-9.49387
▁secret	-9.50443
▁action	-9.5054
▁remain	-9.5054
▁favour	-9.50546
ic	-9.50952
▁wouldst	-9.51214
ch	-9.51955
▁bitter	-9.51957
▁leisure	-9.51972
▁stop	-9.52032
▁Too	-9.52122
▁Gaunt	-9.5216
▁hundred	-9.5216
▁proclaim	-9.5216
▁teach	-9.5216
▁dispatch	-9.5216
▁seven	-9.52161
▁bride	-9.52161
▁vain	-9.52162
▁laid	-9.52162
▁summer	-9.52165
▁choose	-9.52167
▁dry	-9.52169
▁Unto	-9.52173
▁Sirrah	-9.5218
▁conscience	-9.5218
▁victory	-9.52187
▁Fear	-9.52194
▁judge	-9.52214
▁quiet	-9.52217
▁obey	-9.52218
▁bones	-9.52351
▁above	-9.52408
▁white	-9.52441
▁sour	-9.52469
▁aside	-9.52549
▁note	-9.52588
▁broke	-9.52651
▁seal	-9.52695
▁sort	-9.52754
▁held	-9.53195
▁longer	-9.53253
to	-9.53449
▁doing	-9.53832
▁trouble	-9.5389
ve	-9.54304
▁shows	-9.5446
ant	-9.545
▁morrow	-9.54577
▁danger	-9.55124
ight	-9.55756
▁swift	-9.56772
▁Hear	-9.56793
▁dark	-9.56855
▁Ear	-9.56865
▁small	-9.56883
▁Catesby	-9.56922
▁desperate	-9.56922
▁effect	-9.56922
▁knowledge	-9.56922
▁precious	-9.56922
▁stood	-9.56922
▁wisdom	-9.56922
▁yourselves	-9.56922
▁excuse	-9.56922
▁kinsman	-9.56922
▁pride	-9.56922
▁despair	-9.56922
▁glory	-9.56925
▁DOR	-9.56934
▁forgot	-9.57037
▁citizens	-9.57042
▁blessed	-9.57105
▁possess	-9.57106
▁lived	-9.57164
▁mar	-9.57362
RT	-9.57451
el	-9.57537
▁shake	-9.58049
ble	-9.58178
▁knees	-9.58782
▁pain	-9.59035
▁ay	-9.5916
▁towards	-9.59228
▁V	-9.59619
▁bow	-9.59824
▁lead	-9.60044
▁manner	-9.60329
PS	-9.60561
▁woes	-9.60781
▁humble	-9.60842
ar	-9.60873
▁sing	-9.61165
▁bless	-9.61438
ment	-9.61518
▁lands	-9.61596
▁eat	-9.61607
▁wretch	-9.61753
▁English	-9.61903
▁Aumerle	-9.61922
▁John	-9.61922
▁Mowbray	-9.61922
▁cruel	-9.61922
▁kept	-9.61922
▁money	-9.61922
▁methinks	-9.61922
▁idle	-9.61923
▁enjoy	-9.61923
▁guess	-9.61923
▁rise	-9.61923
▁fought	-9.61923
▁struck	-9.61924
▁few	-9.61928
▁health	-9.61931
▁fruit	-9.61945
▁hair	-9.61953
▁vice	-9.61953
▁lordship	-9.62003
▁sign	-9.62041
▁bite	-9.62057
▁alive	-9.621
▁army	-9.62239
▁aid	-9.62468
edant	-9.62544
▁deadly	-9.62955
▁cheeks	-9.63125
▁promised	-9.63128
▁flowers	-9.6338
▁cure	-9.63568
▁ST	-9.64243
il	-9.64555
GO	-9.65057
am	-9.65169
▁crave	-9.65583
▁officer	-9.65589
ious	-9.65655
▁tent	-9.65805
▁stone	-9.65882
!--	-9.66033
▁co	-9.66343
house	-9.66437
BU	-9.66607
▁whe	-9.66856
▁bend	-9.67016
▁wild	-9.67018
▁fond	-9.67093
▁laugh	-9.67181
▁Lewis	-9.67185
▁Mercutio	-9.67185
▁perceive	-9.67185
▁raise	-9.67185
▁valour	-9.67185
▁Prince	-9.67185
▁blame	-9.67185
▁humour	-9.67185
▁Heaven	-9.67187
▁girl	-9.67187
▁cried	-9.67187
▁priest	-9.67188
▁scarce	-9.67189
▁kindred	-9.67194
▁six	-9.67202
▁Made	-9.67202
▁charity	-9.67204
▁Pardon	-9.67208
▁guard	-9.67209
▁truly	-9.67211
▁spent	-9.67212
▁foolish	-9.67216
▁Mine	-9.67225
▁herself	-9.67232
▁Put	-9.67235
▁try	-9.67271
▁root	-9.6728
▁honourable	-9.67323
▁cast	-9.67418
▁died	-9.67422
▁among	-9.67424
▁rid	-9.67542
▁early	-9.67565
▁smile	-9.67662
ty	-9.67722
▁stars	-9.67918
▁bears	-9.68043
▁s	-9.68201
▁respect	-9.68317
▁moved	-9.68348
▁speaks	-9.68419
▁liest	-9.68598
▁Re	-9.69044
K	-9.69386
▁tune	-9.69396
▁p	-9.69834
▁burn	-9.70595
▁force	-9.70923
at	-9.71
▁reign	-9.71025
▁winter	-9.71059
▁dreams	-9.71209
▁flower	-9.71269
teous	-9.72326
▁drown	-9.72372
▁going	-9.7249
▁depart	-9.7249
▁coward	-9.72608
▁Cominius	-9.72741
▁Know	-9.72741
▁envy	-9.72741
▁provost	-9.72741
▁view	-9.72741
▁nine	-9.72741
▁trial	-9.72742
▁vengeance	-9.72742
▁malice	-9.72742
▁Never	-9.72744
▁bright	-9.72746
▁yea	-9.7276
▁Harry	-9.72763
▁satisfied	-9.72765
▁judgment	-9.72765
▁plague	-9.72766
▁question	-9.72767
▁abroad	-9.72772
▁wail	-9.72777
▁Fie	-9.72786
▁Alack	-9.72787
▁wherefore	-9.72787
▁Once	-9.72803
▁thereof	-9.72812
▁Bid	-9.72833
▁kindness	-9.72835
▁ease	-9.72855
▁faint	-9.72914
▁anon	-9.73021
▁weary	-9.73341
▁party	-9.73462
▁meat	-9.73517
▁Volsces	-9.73714
▁en	-9.73849
▁shed	-9.7408
▁walls	-9.74096
tw	-9.74525
▁lo	-9.74612
▁quick	-9.74629
▁owe	-9.74825
EST	-9.75063
▁masters	-9.75534
te	-9.76239
ure	-9.76383
▁beggar	-9.76597
▁sigh	-9.76764
for	-9.76853
▁evil	-9.76903
k	-9.77027
▁honours	-9.77083
▁boot	-9.77132
▁sentence	-9.77843
▁Und	-9.77862
▁accuse	-9.77903
▁divine	-9.78154
▁steal	-9.78161
▁proceed	-9.78254
▁execution	-9.7831
▁account	-9.78378
ur	-9.78389
▁condemn	-9.78419
▁drunk	-9.78584
▁butcher	-9.78606
▁church	-9.78622
▁Corioli	-9.78623
▁Methinks	-9.78623
▁Please	-9.78623
▁Rutland	-9.78623
▁Thomas	-9.78623
▁Vincentio	-9.78623
▁Whilst	-9.78623
▁countenance	-9.78623
▁occasion	-9.78623
▁thunder	-9.78623
▁tyrant	-9.78623
▁vile	-9.78623
▁shore	-9.78623
▁After	-9.78623
▁Mantua	-9.78623
▁Paulina	-9.78623
▁Peter	-9.78623
▁blind	-9.78624
▁corse	-9.78629
▁deputy	-9.78634
▁gown	-9.78644
▁lest	-9.78645
▁spake	-9.78653
▁wanton	-9.7867
zen	-9.78673
▁True	-9.78694
▁quite	-9.78695
▁dull	-9.78707
▁wench	-9.78732
▁easy	-9.7874
▁wretched	-9.78822
▁double	-9.7885
▁honesty	-9.78905
ne	-9.79104
▁received	-9.79242
▁changed	-9.80416
▁corn	-9.80579
IST	-9.80646
▁calls	-9.81406
▁chide	-9.81571
he	-9.81956
▁foes	-9.81992
▁low	-9.82307
▁mayst	-9.82522
▁triumph	-9.83097
▁Capulet	-9.83152
▁brow	-9.83157
▁creature	-9.8318
▁knave	-9.83218
▁finger	-9.83222
▁spring	-9.83231
▁swords	-9.8397
▁writ	-9.84129
heart	-9.84137
▁nose	-9.84137
▁sp	-9.84371
▁understand	-9.84524
▁door	-9.84556
▁god	-9.84588
▁roar	-9.84627
▁fain	-9.8469
eave	-9.847
▁awake	-9.84744
▁w	-9.84806
▁sacr	-9.84872
▁Caius	-9.84873
▁Stanley	-9.84873
▁THOMAS	-9.84873
▁Verona	-9.84873
▁choice	-9.84873
▁ghost	-9.84873
▁remedy	-9.84873
▁repent	-9.84873
▁senate	-9.84873
▁sirrah	-9.84873
▁whilst	-9.84873
▁wicked	-9.84873
▁Mistress	-9.84873
▁silence	-9.84873
▁Brother	-9.84873
▁hollow	-9.84874
▁sheep	-9.84874
▁Jove	-9.84875
▁devise	-9.84877
▁twice	-9.84877
▁Besides	-9.8488
▁rude	-9.84883
▁green	-9.84883
▁safety	-9.84883
▁pack	-9.84889
▁Death	-9.84892
▁fiery	-9.84893
▁gain	-9.84899
▁simple	-9.849
▁Friar	-9.84901
▁buried	-9.84901
▁thrive	-9.84902
▁Tut	-9.8492
▁blest	-9.84922
▁dust	-9.84937
▁always	-9.84967
▁VA	-9.84994
▁Love	-9.85064
▁custom	-9.85069
▁fell	-9.85157
▁grown	-9.85238
▁therein	-9.85358
▁tread	-9.8557
un	-9.85837
i	-9.86158
▁brows	-9.86506
▁taken	-9.86605
▁others	-9.86727
▁pains	-9.86955
h	-9.87102
thing	-9.87175
oor	-9.87524
ive	-9.87877
▁brothers	-9.88385
▁drop	-9.88646
▁wall	-9.89082
▁deserve	-9.89169
▁tongues	-9.89261
▁ship	-9.89743
▁demand	-9.89771
▁rock	-9.89773
▁reasons	-9.89825
▁m	-9.89835
▁plant	-9.89927
▁cheek	-9.89944
▁colour	-9.90006
▁mis	-9.90285
time	-9.908
▁traitors	-9.90802
▁per	-9.90949
▁Show	-9.9119
VER	-9.91203
▁private	-9.91369
sh	-9.91379
H	-9.91506
▁sport	-9.91513
▁convey	-9.91531
▁Apollo	-9.9154
▁Barnardine	-9.9154
▁Capitol	-9.9154
▁Menenius	-9.9154
▁Prithee	-9.9154
▁Somerset	-9.9154
▁absence	-9.9154
▁crack	-9.9154
▁despite	-9.9154
▁ignorant	-9.9154
▁motion	-9.9154
▁practise	-9.9154
▁renown	-9.9154
▁vantage	-9.9154
▁Indeed	-9.9154
▁knight	-9.9154
▁rotten	-9.9154
▁violent	-9.9154
▁Cousin	-9.9154
▁Musician	-9.9154
▁sharp	-9.9154
▁garden	-9.91541
▁Christian	-9.91541
▁clear	-9.91541
▁exile	-9.91541
▁troth	-9.91542
▁ruin	-9.91542
▁hit	-9.91543
▁benefit	-9.91548
▁taste	-9.9155
▁oracle	-9.91555
▁Turn	-9.91558
▁castle	-9.91561
▁firm	-9.91568
▁advantage	-9.9157
▁prize	-9.91571
▁Myself	-9.91573
▁hurt	-9.91575
▁belly	-9.91577
▁bark	-9.91577
▁wrongs	-9.91579
▁fury	-9.91587
▁tame	-9.91596
▁claim	-9.91622
▁anger	-9.91654
▁dreadful	-9.91661
▁former	-9.91673
▁weeds	-9.91695
▁broken	-9.91707
▁deceived	-9.9179
▁prayer	-9.91791
▁drawn	-9.91811
▁Wherein	-9.91825
▁wherein	-9.91827
ERB	-9.91835
▁went	-9.91844
▁allow	-9.91911
▁adieu	-9.91912
▁mayor	-9.92247
▁hanging	-9.92307
▁wings	-9.92489
▁trumpets	-9.92609
den	-9.92739
▁Offic	-9.92796
▁fares	-9.9282
and	-9.92926
nt	-9.93151
▁north	-9.93585
▁stones	-9.9363
▁meaning	-9.93675
▁thinks	-9.93775
▁b	-9.93999
ter	-9.94517
DO	-9.94517
▁BU	-9.94549
▁Hast	-9.94608
▁pi	-9.95281
ELL	-9.95582
▁proper	-9.95969
Tw	-9.9608
▁receive	-9.96164
LI	-9.96635
▁saint	-9.96763
▁condition	-9.96913
▁throat	-9.96913
ary	-9.96914
▁commend	-9.96955
hose	-9.96963
▁number	-9.96983
▁lamb	-9.96991
▁list	-9.97005
▁storm	-9.97023
▁babe	-9.9704
▁affection	-9.97063
▁la	-9.97279
▁sits	-9.97298
bed	-9.97314
me	-9.97325
▁cares	-9.97442
▁maids	-9.97553
c	-9.97561
▁advise	-9.97912
place	-9.97926
▁prepare	-9.97945
bout	-9.97982
▁success	-9.9799
SA	-9.9804
▁dread	-9.98308
ever	-9.98392
▁hid	-9.98449
▁gross	-9.98495
▁utter	-9.98519
ro	-9.98567
let	-9.9859
▁quit	-9.98597
▁Hermione	-9.98683
▁Pisa	-9.98683
▁Rivers	-9.98683
▁Thursday	-9.98683
▁asleep	-9.98683
▁burthen	-9.98683
▁chief	-9.98683
▁tidings	-9.98683
▁woful	-9.98683
▁Great	-9.98683
▁Three	-9.98683
▁tedious	-9.98683
▁RICH	-9.98683
▁disposition	-9.98683
▁thrust	-9.98683
▁envious	-9.98684
▁wander	-9.98684
▁Grey	-9.98684
▁express	-9.98685
▁stuff	-9.98685
▁undone	-9.98685
▁several	-9.98686
▁cell	-9.98686
▁mistake	-9.98687
▁resign	-9.98687
▁cries	-9.98687
▁supper	-9.98688
▁perish	-9.98688
▁plot	-9.98689
▁threaten	-9.9869
▁alas	-9.98692
▁big	-9.98692
▁perfect	-9.98692
▁pair	-9.98693
▁dew	-9.98693
▁carry	-9.98697
▁pawn	-9.98698
▁possible	-9.98715
▁Mark	-9.98715
▁hunt	-9.98718
▁due	-9.9872
▁fatal	-9.98722
▁authority	-9.98725
▁peril	-9.98725
▁aught	-9.98731
▁table	-9.98739
▁farther	-9.9874
▁followers	-9.98773
▁damned	-9.98776
▁Into	-9.98824
▁affairs	-9.98867
▁garments	-9.98867
▁wives	-9.98867
▁whole	-9.98884
▁slow	-9.98936
▁outward	-9.98949
▁borne	-9.98969
▁deposed	-9.9901
▁press	-9.99293
▁prepared	-9.99441
▁ring	-9.99503
▁fellows	-9.99669
▁banished	-9.99775
by	-9.99795
▁Hav	-10.0007
▁humbl	-10.0027
▁Lords	-10.0042
▁sighs	-10.0069
▁red	-10.0071
▁becomes	-10.0078
▁lament	-10.0078
v	-10.009
▁used	-10.0098
ach	-10.0129
fold	-10.0129
ESS	-10.0134
▁leaves	-10.0154
▁Ver	-10.0193
▁wont	-10.02
ster	-10.0225
▁begins	-10.0229
men	-10.0241
will	-10.025
▁pleased	-10.03
ted	-10.0306
▁con	-10.0329
ound	-10.0361
row	-10.0365
▁embrace	-10.0373
▁fools	-10.0392
ess	-10.0404
▁oft	-10.0422
▁intend	-10.043
▁innocent	-10.0452
▁prevail	-10.0452
was	-10.0454
▁proof	-10.0456
▁beast	-10.0457
▁wound	-10.046
fore	-10.0462
▁neighbour	-10.0468
▁lend	-10.047
▁guest	-10.0471
▁shadow	-10.0472
▁drum	-10.0475
▁lip	-10.048
▁Fai	-10.0497
▁shape	-10.0504
▁pe	-10.0511
▁Am	-10.0527
hood	-10.0535
▁Hence	-10.0546
▁plead	-10.0552
▁continue	-10.0553
▁endure	-10.0561
▁resolve	-10.0563
▁dam	-10.0574
▁wait	-10.0604
▁deal	-10.0605
▁add	-10.0612
▁Ho	-10.0613
▁betw	-10.0617
▁round	-10.0623
▁guilt	-10.0626
▁ex	-10.0627
▁discover	-10.0628
▁Believe	-10.0637
▁Biondello	-10.0637
▁Polixenes	-10.0637
▁Tailor	-10.0637
▁Worth	-10.0637
▁chair	-10.0637
▁contrary	-10.0637
▁delay	-10.0637
▁language	-10.0637
▁natural	-10.0637
▁paper	-10.0637
▁pleasant	-10.0637
▁protest	-10.0637
▁remembrance	-10.0637
▁unnatural	-10.0637
▁wreck	-10.0637
▁beheld	-10.0637
▁Bona	-10.0638
▁courtesy	-10.0638
▁disdain	-10.0638
▁teeth	-10.0638
▁store	-10.0638
▁empty	-10.0638
▁palace	-10.0638
▁sway	-10.0638
▁trade	-10.0638
▁cunning	-10.0638
▁terror	-10.0638
▁twelve	-10.0638
▁denied	-10.0638
▁flight	-10.0638
▁shut	-10.0638
▁spend	-10.0638
▁miserable	-10.0638
▁silver	-10.0638
HOR	-10.0638
▁Help	-10.0638
▁spare	-10.0638
▁undertake	-10.0638
▁fame	-10.0638
▁opinion	-10.0638
▁forsworn	-10.0639
▁gage	-10.064
▁wrath	-10.064
▁Boy	-10.064
▁quench	-10.0641
▁dinner	-10.0641
▁access	-10.0641
▁Still	-10.0641
▁brook	-10.0641
▁whither	-10.0641
▁gentlewoman	-10.0641
▁until	-10.0641
▁apparel	-10.0642
▁passage	-10.0642
▁wedding	-10.0646
▁limit	-10.0648
▁east	-10.0649
▁prey	-10.065
▁single	-10.0652
▁inform	-10.0652
▁merit	-10.0653
▁sorry	-10.0654
▁glass	-10.0656
▁Bear	-10.0658
▁wine	-10.0659
▁room	-10.066
▁curst	-10.0662
▁Lo	-10.0669
be	-10.0677
▁follows	-10.068
▁write	-10.0689
▁legs	-10.071
▁wither	-10.0714
▁resolved	-10.0716
▁joyful	-10.0718
mely	-10.0728
▁murderer	-10.0733
▁goodness	-10.0756
▁spite	-10.078
ay	-10.0785
▁belike	-10.0793
een	-10.0841
▁AB	-10.0877
▁boar	-10.0975
▁cur	-10.101
IA	-10.1022
▁kingly	-10.1096
teen	-10.1097
co	-10.1279
ice	-10.1279
▁fail	-10.1286
▁spirits	-10.1286
▁intent	-10.1299
▁minister	-10.1305
▁instrument	-10.1307
▁groan	-10.1307
▁gate	-10.1315
▁sometime	-10.1321
ent	-10.1358
clock	-10.1389
▁frame	-10.1392
▁seize	-10.1395
ied	-10.1397
▁rule	-10.1399
▁stoop	-10.1436
▁greet	-10.1437
▁sh	-10.1438
▁instruct	-10.1444
▁offend	-10.1452
▁unti	-10.1456
▁credit	-10.1457
▁di	-10.1468
▁Gentle	-10.147
ual	-10.1471
▁counterfeit	-10.1471
▁destroy	-10.1471
▁particular	-10.1471
▁AEdile	-10.1471
▁Marshal	-10.1471
▁assurance	-10.1471
▁courage	-10.1471
▁debt	-10.1471
▁excellent	-10.1471
▁naked	-10.1471
▁stamp	-10.1471
▁ARCH	-10.1471
▁Two	-10.1471
▁attempt	-10.1471
▁hereafter	-10.1471
▁dagger	-10.1471
▁dukedom	-10.1471
▁beyond	-10.1471
▁folly	-10.1471
▁hark	-10.1471
▁smooth	-10.1471
▁swallow	-10.1471
▁story	-10.1471
▁discontent	-10.1471
▁tomb	-10.1471
eign	-10.1471
▁hatred	-10.1471
▁making	-10.1471
▁wot	-10.1471
▁misery	-10.1471
▁entertain	-10.1471
▁image	-10.1471
▁bodies	-10.1471
▁repair	-10.1471
▁obedience	-10.1471
▁government	-10.1471
▁calm	-10.1471
▁sceptre	-10.1471
▁spoil	-10.1471
▁protector	-10.1472
▁armour	-10.1472
▁large	-10.1472
▁approach	-10.1472
▁study	-10.1472
▁dur	-10.1473
▁French	-10.1473
▁happiness	-10.1473
▁market	-10.1474
▁Beseech	-10.1475
▁beloved	-10.1475
▁gaze	-10.1476
▁painted	-10.1477
▁Father	-10.1478
▁senators	-10.1479
▁pure	-10.1481
▁passion	-10.1482
▁None	-10.1484
▁yonder	-10.1486
same	-10.1487
▁Right	-10.1487
▁Unti	-10.1489
▁needful	-10.1489
▁catch	-10.149
▁wounded	-10.1492
▁sink	-10.1497
▁shortly	-10.1503
▁spoken	-10.1511
OL	-10.1529
▁Only	-10.1541
▁commanded	-10.1548
HAS	-10.1578
▁po	-10.1596
▁sometimes	-10.1636
▁amen	-10.1651
if	-10.1654
▁bare	-10.1659
▁colours	-10.1679
ory	-10.1694
ake	-10.1695
▁miss	-10.1708
▁fairly	-10.1717
▁r	-10.172
▁called	-10.1741
▁remains	-10.1781
rs	-10.1792
▁princess	-10.1793
▁bar	-10.1795
▁special	-10.1821
▁Has	-10.1824
lown	-10.1875
▁looking	-10.1944
▁seest	-10.1947
▁ba	-10.1947
ow	-10.1948
▁loath	-10.1966
▁dares	-10.197
▁keeps	-10.1972
▁wits	-10.1974
▁waters	-10.1986
▁nobles	-10.2081
▁curses	-10.2111
▁parts	-10.2124
▁praise	-10.213
▁services	-10.2135
▁dwell	-10.2166
▁spur	-10.218
▁rogue	-10.2194
▁torment	-10.2194
▁bastard	-10.2197
▁degree	-10.2203
▁delight	-10.2203
▁mile	-10.2204
▁month	-10.2213
▁Volsce	-10.222
▁gall	-10.2227
▁trick	-10.2228
▁odd	-10.2228
▁brain	-10.223
▁cap	-10.225
ough	-10.2266
▁names	-10.2275
of	-10.2276
▁mourn	-10.2286
born	-10.2298
▁whiles	-10.23
▁horses	-10.23
▁turns	-10.2304
what	-10.2306
▁tr	-10.2334
▁mild	-10.2337
▁affect	-10.2337
▁blush	-10.2341
▁kin	-10.2344
▁seeing	-10.2344
▁punish	-10.2355
▁mount	-10.2358
▁fright	-10.2359
▁contract	-10.236
▁equal	-10.2361
▁f	-10.2367
▁fish	-10.2376
▁rash	-10.2377
▁glori	-10.2377
▁lean	-10.2377
▁venom	-10.238
▁Boatswain	-10.238
▁Dorset	-10.238
▁Exeter	-10.238
▁Jack	-10.238
▁Lucio	-10.238
▁Naples	-10.238
▁Soldier	-10.238
▁absent	-10.238
▁behalf	-10.238
▁commission	-10.238
▁forfeit	-10.238
▁increase	-10.238
▁knife	-10.238
▁monstrous	-10.238
▁resolution	-10.238
▁temple	-10.238
▁thief	-10.238
▁treacherous	-10.238
▁treasure	-10.238
▁vault	-10.238
▁earnest	-10.238
▁slept	-10.238
▁island	-10.238
▁scope	-10.238
▁Whither	-10.238
▁abide	-10.238
▁enmity	-10.238
▁nought	-10.238
▁torture	-10.238
▁suspicion	-10.238
▁lark	-10.238
▁strew	-10.238
▁slay	-10.238
▁estate	-10.238
▁cease	-10.238
▁realm	-10.238
▁unknown	-10.238
▁captain	-10.238
▁Gentlemen	-10.2381
▁sky	-10.2381
▁perpetual	-10.2381
▁Draw	-10.2381
▁March	-10.2381
▁Came	-10.2381
▁prosperous	-10.2382
▁pitch	-10.2382
▁Dear	-10.2383
▁reverend	-10.2384
▁scene	-10.2384
▁Widow	-10.2384
▁giving	-10.2384
▁flies	-10.2385
▁Long	-10.2387
▁Lay	-10.2389
▁Sicilia	-10.2391
▁nativ	-10.2392
▁accept	-10.2393
▁daughters	-10.2395
▁wide	-10.2396
▁hateful	-10.2396
▁Post	-10.2398
▁acquaint	-10.2403
▁weather	-10.2403
▁worn	-10.2408
▁Amen	-10.2414
▁respected	-10.2414
▁Set	-10.242
▁beard	-10.2423
▁seas	-10.2438
▁blessing	-10.2441
▁granted	-10.2441
▁freely	-10.2448
:--	-10.2451
▁contented	-10.2466
▁led	-10.247
▁terms	-10.2482
▁fortunes	-10.2498
▁friendly	-10.2498
▁dire	-10.25
▁N	-10.2509
▁shine	-10.2511
ri	-10.2512
▁joys	-10.2515
▁camest	-10.2524
▁ends	-10.2531
▁odds	-10.2545
▁drums	-10.2577
▁seeming	-10.2607
▁deserves	-10.2611
▁drops	-10.2614
▁car	-10.2645
ra	-10.2665
▁isle	-10.2686
▁leads	-10.269
▁manners	-10.2693
▁princes	-10.2696
▁de	-10.2696
▁Son	-10.2742
▁port	-10.2772
▁top	-10.2776
▁grows	-10.2787
▁fe	-10.2806
▁wants	-10.2884
are	-10.2897
▁fare	-10.2943
▁winds	-10.295
tain	-10.2993
▁serves	-10.3001
▁hopes	-10.3002
▁br	-10.3025
ping	-10.3034
ut	-10.3044
▁gives	-10.3094
▁grieve	-10.3132
led	-10.3155
▁sins	-10.3162
ier	-10.3177
▁sail	-10.3192
▁desert	-10.3194
▁purse	-10.3194
▁faces	-10.3195
▁elder	-10.3197
▁rascal	-10.3203
▁profit	-10.3207
▁gift	-10.3211
▁afford	-10.3213
▁lion	-10.3213
▁tide	-10.3215
▁bird	-10.3217
▁stroke	-10.3219
▁trumpet	-10.3222
▁crowns	-10.3241
▁lev	-10.3241
▁whip	-10.3269
ish	-10.3282
▁smiles	-10.3288
▁enforce	-10.33
God	-10.3305
▁temper	-10.3308
▁feed	-10.3333
▁prick	-10.334
▁comest	-10.3344
▁waste	-10.3345
▁breed	-10.3348
▁weigh	-10.3353
▁expect	-10.3355
▁loud	-10.3358
▁conduct	-10.336
▁tempt	-10.336
▁rare	-10.3361
▁employ	-10.3372
▁south	-10.3378
▁cup	-10.3379
▁Ye	-10.3379
ommend	-10.3379
▁loyal	-10.3379
▁solemn	-10.338
UGH	-10.338
▁Huntsman	-10.338
▁Ireland	-10.338
▁Pomfret	-10.338
▁Ratcliff	-10.338
▁Rosaline	-10.338
▁Titus	-10.338
▁advice	-10.338
▁afternoon	-10.338
▁brawl	-10.338
▁chase	-10.338
▁conceit	-10.338
▁garland	-10.338
▁journey	-10.338
▁knot	-10.338
▁parliament	-10.338
▁perforce	-10.338
▁sanctuary	-10.338
▁thrice	-10.338
▁yoke	-10.338
▁third	-10.338
▁Count	-10.338
▁Ghost	-10.338
▁bethink	-10.338
▁daily	-10.338
▁revolt	-10.338
▁provoke	-10.338
▁dying	-10.338
▁gently	-10.338
▁nobly	-10.338
▁wrought	-10.338
▁discourse	-10.338
▁wholesome	-10.338
▁grievous	-10.338
▁habit	-10.338
▁silent	-10.338
▁committed	-10.338
▁cover	-10.338
▁maintain	-10.338
▁imprisonment	-10.338
▁swell	-10.338
▁ripe	-10.3381
▁eagle	-10.3381
▁Conspirator	-10.3381
▁ruth	-10.3381
▁slip	-10.3381
▁constant	-10.3381
▁dress	-10.3381
▁begun	-10.3381
▁Down	-10.3382
▁suck	-10.3382
▁according	-10.3382
▁Froth	-10.3382
▁season	-10.3383
▁grain	-10.3383
▁jealous	-10.3383
▁current	-10.3385
▁conjure	-10.3385
▁hie	-10.3385
▁forgive	-10.3386
▁messenger	-10.3387
▁whereof	-10.3387
▁amazed	-10.3389
taught	-10.3389
▁county	-10.3391
▁escape	-10.3391
▁lusty	-10.3391
▁bond	-10.3391
▁willingly	-10.3393
▁avoid	-10.3396
▁privilege	-10.3398
▁dish	-10.34
▁build	-10.34
▁Young	-10.34
▁school	-10.3401
▁Dare	-10.3401
▁wept	-10.3401
▁veins	-10.3406
▁arrived	-10.3407
▁rain	-10.3408
▁aunt	-10.3411
▁aboard	-10.3412
▁Bring	-10.3415
▁forbear	-10.3417
▁bury	-10.3418
▁purchase	-10.3419
▁stopp	-10.342
▁lock	-10.3424
▁hardly	-10.3432
▁stranger	-10.3435
▁supposed	-10.3436
▁unless	-10.3437
▁streets	-10.3441
▁urged	-10.3444
▁greatest	-10.3446
▁assured	-10.3448
▁hanged	-10.3452
▁torch	-10.3454
▁hat	-10.3457
▁peers	-10.3461
▁soundly	-10.3462
SO	-10.3466
▁faithful	-10.3468
▁darest	-10.3471
▁Thanks	-10.3472
▁kindly	-10.3483
▁feeling	-10.3494
▁accused	-10.3512
▁pin	-10.3517
REL	-10.3531
▁profess	-10.3536
▁salt	-10.3539
ian	-10.3551
up	-10.3555
▁FR	-10.3558
▁dies	-10.356
▁hasty	-10.3564
▁alter	-10.3569
▁groans	-10.3582
▁instruments	-10.3582
▁ado	-10.3598
ring	-10.3614
▁affections	-10.3617
▁fo	-10.3647
▁boots	-10.367
▁pre	-10.3675
▁wood	-10.368
▁alike	-10.3722
▁charged	-10.3731
▁revenged	-10.3738
▁pieces	-10.3795
▁sooth	-10.3824
▁brings	-10.3846
▁bearing	-10.3863
▁Romans	-10.3867
▁bade	-10.3882
▁vows	-10.3885
▁ways	-10.3896
▁heed	-10.3901
▁oak	-10.3912
▁shoulder	-10.3927
▁fr	-10.3946
▁able	-10.3952
▁lust	-10.3962
▁appeal	-10.3993
ig	-10.402
▁tall	-10.4051
ather	-10.4064
faced	-10.4067
▁powers	-10.4069
ture	-10.4074
▁lovely	-10.4076
ol	-10.408
▁Qu	-10.4115
▁muster	-10.4138
▁sue	-10.4222
side	-10.4233
one	-10.424
▁SI	-10.4274
▁wor	-10.4284
▁spit	-10.4288
▁ballad	-10.4305
▁pa	-10.4315
▁pound	-10.4315
▁rose	-10.4319
▁fashion	-10.4319
▁tremble	-10.4322
▁design	-10.4322
id	-10.4329
▁ride	-10.4351
▁clo	-10.4368
▁aim	-10.4369
aving	-10.4384
▁count	-10.4399
▁censure	-10.4405
▁disgrace	-10.4412
▁retire	-10.4413
▁remove	-10.4413
▁determine	-10.4415
▁assure	-10.4417
▁sends	-10.4418
law	-10.4428
▁complain	-10.4433
look	-10.4454
▁morn	-10.446
▁houses	-10.4462
▁stabb	-10.4469
▁sting	-10.4471
▁wing	-10.4477
▁Dis	-10.4478
▁Me	-10.4483
▁prevent	-10.4483
▁shrew	-10.4485
▁length	-10.4487
▁virgin	-10.4489
▁Up	-10.4491
▁Milan	-10.4491
▁deceit	-10.4491
▁repeal	-10.4491
▁Become	-10.4491
▁Caesar	-10.4491
▁Proceed	-10.4491
▁Salisbury	-10.4491
▁Tyrrel	-10.4491
▁Vienna	-10.4491
▁alliance	-10.4491
▁appetite	-10.4491
▁blunt	-10.4491
▁bridegroom	-10.4491
▁devotion	-10.4491
▁exercise	-10.4491
▁infant	-10.4491
▁league	-10.4491
▁melancholy	-10.4491
▁mistrust	-10.4491
▁monument	-10.4491
▁obedient	-10.4491
▁penitent	-10.4491
▁remorse	-10.4491
▁secure	-10.4491
▁snow	-10.4491
▁sullen	-10.4491
▁tempest	-10.4491
▁tyranny	-10.4491
▁unhappy	-10.4491
▁vessel	-10.4491
▁Derby	-10.4491
▁holp	-10.4491
▁impossible	-10.4491
▁smell	-10.4491
▁flourish	-10.4491
▁exchange	-10.4491
▁conference	-10.4491
▁craft	-10.4491
▁betray	-10.4491
▁descend	-10.4491
▁iron	-10.4491
▁caught	-10.4491
▁fancy	-10.4491
▁twain	-10.4491
▁defence	-10.4491
▁withdraw	-10.4491
▁food	-10.4491
▁pretti	-10.4491
▁regard	-10.4491
▁lent	-10.4491
▁rail	-10.4491
▁rank	-10.4492
▁brace	-10.4492
▁rebellion	-10.4492
▁dignity	-10.4492
▁imagine	-10.4492
▁entertainment	-10.4492
▁froward	-10.4492
▁lance	-10.4492
▁Fourth	-10.4492
▁task	-10.4492
▁betimes	-10.4493
▁tarry	-10.4493
▁direction	-10.4493
▁barren	-10.4493
▁date	-10.4493
▁character	-10.4494
▁stretch	-10.4494
▁falsehood	-10.4494
▁ran	-10.4495
▁Live	-10.4495
▁blot	-10.4495
▁disma	-10.4495
▁edge	-10.4495
▁horn	-10.4495
▁sovereignty	-10.4496
▁Wilt	-10.4496
▁conceive	-10.4496
▁possession	-10.4496
▁unjust	-10.4496
▁reverence	-10.4496
▁contempt	-10.4496
▁shield	-10.4496
▁waking	-10.4497
▁gallant	-10.4497
▁apparent	-10.4498
▁sickness	-10.4498
▁redeem	-10.4498
▁weakness	-10.4499
▁forswear	-10.4501
▁patricians	-10.4502
▁Fare	-10.4504
▁sell	-10.4506
▁household	-10.4506
▁feet	-10.4508
▁below	-10.4511
LIS	-10.4511
▁Noble	-10.4512
▁spy	-10.4513
▁import	-10.4513
▁ope	-10.4514
ia	-10.4515
▁cock	-10.4517
▁star	-10.4518
▁offended	-10.4519
ine	-10.4519
▁apt	-10.4521
▁powerful	-10.4521
▁yond	-10.4529
▁alack	-10.4532
▁figure	-10.4536
op	-10.4541
▁strive	-10.4544
▁ago	-10.4544
▁pursue	-10.4545
▁executioner	-10.4552
ern	-10.4566
▁determined	-10.4568
▁although	-10.4568
▁surely	-10.4568
▁weight	-10.4568
▁rega	-10.4573
?--	-10.4577
▁besides	-10.458
▁fairest	-10.458
ivil	-10.4583
▁ruled	-10.4595
▁beholding	-10.4603
were	-10.4622
▁holds	-10.4645
▁Again	-10.4652
▁forced	-10.4666
▁pierce	-10.468
most	-10.472
end	-10.4721
ail	-10.4726
▁beasts	-10.4738
ments	-10.4774
▁meeting	-10.4782
▁knaves	-10.4798
▁sli	-10.4804
▁Men	-10.4814
▁breathed	-10.4834
▁keeper	-10.4851
▁saying	-10.4864
aith	-10.4882
▁meant	-10.489
▁parting	-10.492
▁revel	-10.494
▁books	-10.4959
▁mouths	-10.4959
ARI	-10.4984
▁standing	-10.4988
▁fa	-10.5002
ock	-10.5003
▁slaves	-10.502
▁mend	-10.5032
▁sire	-10.504
OTH	-10.5057
▁sore	-10.5064
▁finds	-10.5123
▁suspect	-10.5124
der	-10.5149
▁virtues	-10.5163
ey	-10.5196
▁desires	-10.5197
ILLO	-10.5205
eath	-10.5211
ub	-10.5227
f	-10.5263
▁points	-10.5266
ind	-10.5285
▁ours	-10.53
old	-10.5302
▁ab	-10.5303
ath	-10.5353
▁heat	-10.5394
▁cl	-10.5394
▁commons	-10.5454
▁weeps	-10.5457
▁petition	-10.5468
▁oaths	-10.5474
▁Off	-10.5481
▁wake	-10.5484
ge	-10.5507
uck	-10.5526
▁disease	-10.5556
▁block	-10.5556
▁ones	-10.5569
▁reward	-10.5573
▁toad	-10.558
▁instruction	-10.5585
▁suitor	-10.5586
▁rust	-10.5587
▁agree	-10.5617
▁angel	-10.5621
▁fires	-10.5644
▁conclude	-10.566
▁pronounce	-10.566
banished	-10.5664
pardon	-10.5666
maid	-10.5667
more	-10.5669
▁accident	-10.5671
▁rag	-10.5675
▁consider	-10.5684
nder	-10.5702
▁Whe	-10.5703
shrew	-10.5707
▁record	-10.5716
▁famous	-10.5722
▁public	-10.5725
▁Ever	-10.5725
▁trembl	-10.5728
▁modest	-10.5729
▁shun	-10.5729
▁human	-10.5733
▁corrupt	-10.5739
▁Uncl	-10.5741
▁Paul	-10.5741
▁Follow	-10.5741
▁Time	-10.5741
▁trespass	-10.5741
▁Happy	-10.5741
▁Lartius	-10.5741
▁Mariana	-10.5741
▁Perdita	-10.5741
▁Return	-10.5741
▁Villain	-10.5741
▁William	-10.5741
▁adventure	-10.5741
▁adversaries	-10.5741
▁beauteous	-10.5741
▁challenge	-10.5741
▁chaste	-10.5741
▁fierce	-10.5741
▁harsh	-10.5741
▁ignorance	-10.5741
▁mirth	-10.5741
▁mischance	-10.5741
▁object	-10.5741
▁perhaps	-10.5741
▁policy	-10.5741
▁profane	-10.5741
▁reap	-10.5741
▁sepulchre	-10.5741
▁shroud	-10.5741
▁spleen	-10.5741
▁statue	-10.5741
▁subtle	-10.5741
▁succeed	-10.5741
▁thirty	-10.5741
▁wondrous	-10.5741
▁burst	-10.5741
▁zeal	-10.5741
▁Bushy	-10.5741
▁bigger	-10.5741
▁cheap	-10.5741
▁sweat	-10.5741
▁confound	-10.5741
▁memory	-10.5741
▁blemish	-10.5741
▁refuse	-10.5741
▁swain	-10.5741
▁hire	-10.5741
▁pleasing	-10.5741
▁axe	-10.5741
▁easi	-10.5741
▁thread	-10.5741
▁example	-10.5741
▁tapster	-10.5741
▁confirm	-10.5741
▁dismiss	-10.5741
▁lift	-10.5741
▁descent	-10.5741
▁Italy	-10.5741
▁jot	-10.5741
▁satisfy	-10.5741
▁scandal	-10.5741
▁seldom	-10.5741
▁week	-10.5741
▁thick	-10.5741
▁redress	-10.5741
▁mystery	-10.5741
▁fawn	-10.5741
▁proclamation	-10.5741
▁lightning	-10.5741
▁pause	-10.5741
▁share	-10.5742
▁Tullus	-10.5742
▁scold	-10.5742
▁opposite	-10.5742
▁palm	-10.5742
▁fourteen	-10.5742
▁accursed	-10.5743
▁triumphant	-10.5743
▁push	-10.5743
▁infection	-10.5743
▁train	-10.5743
▁extremity	-10.5743
▁heartily	-10.5744
▁beget	-10.5744
▁wager	-10.5744
▁Behold	-10.5744
▁supply	-10.5744
▁countrymen	-10.5745
▁substitute	-10.5746
▁began	-10.5746
▁Tush	-10.5747
▁lap	-10.5747
▁proportion	-10.5747
▁visage	-10.5747
▁dowry	-10.5747
▁stomach	-10.5747
▁cheque	-10.5747
▁feather	-10.5747
▁absolute	-10.5749
▁appointed	-10.575
▁modesty	-10.5753
▁Anon	-10.5753
▁Hail	-10.5754
▁Among	-10.5756
▁brat	-10.5756
▁Fair	-10.5756
▁vex	-10.5756
▁lad	-10.5756
▁stick	-10.5757
▁Send	-10.5761
▁deck	-10.5764
▁game	-10.5765
▁repose	-10.5766
▁hare	-10.5768
▁Sound	-10.5771
▁wink	-10.5774
▁flow	-10.5777
▁scar	-10.5789
IT	-10.579
▁dearest	-10.5792
▁youngest	-10.5793
▁manage	-10.5794
ear	-10.5794
▁greatness	-10.5796
▁plainly	-10.5797
▁clothes	-10.5798
▁trusty	-10.5802
app	-10.5809
▁bred	-10.5809
▁executed	-10.5809
▁Cry	-10.581
▁writing	-10.581
▁lover	-10.5816
▁abused	-10.5816
▁Better	-10.5825
▁shrewd	-10.5828
▁removed	-10.583
▁stronger	-10.5831
▁graves	-10.5839
ngling	-10.5839
▁windows	-10.5842
▁yielded	-10.5846
▁growing	-10.5862
▁steeds	-10.5865
RIAN	-10.5899
▁wakes	-10.5911
▁dearly	-10.5935
▁strokes	-10.5955
▁urge	-10.5966
ca	-10.5973
iness	-10.5973
▁Ne	-10.6023
▁shadows	-10.6023
▁song	-10.6028
▁tooth	-10.6031
▁younger	-10.6032
Ay	-10.6042
▁babes	-10.6047
LEO	-10.6099
ors	-10.6102
ew	-10.6108
▁boys	-10.612
ts	-10.6127
▁served	-10.6155
▁craves	-10.6161
▁sweeter	-10.6189
▁meddle	-10.6242
▁Lie	-10.6244
▁intelligence	-10.6245
▁servants	-10.6253
▁fears	-10.6262
▁frowns	-10.6276
▁Him	-10.6315
annot	-10.6331
▁fee	-10.6366
hrough	-10.64
art	-10.6406
▁yes	-10.6425
▁heap	-10.6448
ng	-10.6454
over	-10.6454
▁wed	-10.6481
▁hated	-10.6497
▁inc	-10.6535
▁cost	-10.6549
ick	-10.6616
▁heirs	-10.6653
blown	-10.6657
▁toil	-10.6668
▁ga	-10.667
happily	-10.6716
▁marks	-10.6725
▁sup	-10.6729
▁AL	-10.6758
icious	-10.678
▁sights	-10.6798
ought	-10.6808
bear	-10.6849
▁sets	-10.6852
z	-10.6874
▁mal	-10.6884
▁lovest	-10.689
▁abuse	-10.6906
not	-10.6951
▁uncles	-10.6969
▁jewel	-10.6984
▁charm	-10.6984
▁stock	-10.6997
▁minute	-10.6997
▁weapon	-10.7
▁worm	-10.7001
▁troop	-10.7003
▁term	-10.7007
▁crow	-10.7007
W	-10.7048
soever	-10.707
lthough	-10.7071
ARDIN	-10.7072
▁dove	-10.7079
love	-10.7084
score	-10.7087
ton	-10.7089
▁provide	-10.709
▁lodge	-10.7093
▁yon	-10.7094
▁execute	-10.7094
▁suppose	-10.7094
worthy	-10.7097
ior	-10.7106
ven	-10.712
▁direct	-10.7126
▁chat	-10.7132
▁La	-10.7133
▁rate	-10.7143
augh	-10.7145
▁infect	-10.7146
▁hung	-10.7147
lor	-10.7149
▁companion	-10.715
▁ca	-10.7154
▁orator	-10.7155
ize	-10.7158
▁wealth	-10.7161
▁thin	-10.7162
empt	-10.7163
▁Soft	-10.7166
▁stout	-10.7167
▁afflict	-10.7167
▁compass	-10.7167
▁conceal	-10.7169
▁choler	-10.7169
▁prophet	-10.7169
▁admit	-10.717
▁lurk	-10.717
▁Awake	-10.717
▁Berkeley	-10.717
▁Caliban	-10.717
▁Cambio	-10.717
▁Elbow	-10.717
▁Escalus	-10.717
▁Grace	-10.717
▁Leontes	-10.717
▁Licio	-10.717
▁Strike	-10.717
▁Surrey	-10.717
▁Wife	-10.717
▁bottom	-10.717
▁caitiff	-10.717
▁couple	-10.717
▁giddy	-10.717
▁grandsire	-10.717
▁immortal	-10.717
▁misfortune	-10.717
▁monster	-10.717
▁nuptial	-10.717
▁process	-10.717
▁prompt	-10.717
▁recompense	-10.717
▁rejoice	-10.717
▁reputation	-10.717
▁revenue	-10.717
▁savage	-10.717
▁scatter	-10.717
▁shrift	-10.717
▁strife	-10.717
▁substance	-10.717
▁surfeit	-10.717
▁thumb	-10.717
▁trunk	-10.717
▁velvet	-10.717
▁warriors	-10.717
▁Fortune	-10.717
▁Laurence	-10.717
▁Woe	-10.717
▁boast	-10.717
▁consort	-10.717
▁liberal	-10.717
▁moral	-10.717
▁necessity	-10.717
▁occupation	-10.717
▁tiger	-10.717
▁courteous	-10.717
▁outrage	-10.717
▁presume	-10.717
▁rack	-10.717
▁reply	-10.717
▁violence	-10.717
▁written	-10.717
▁blast	-10.717
▁peevish	-10.717
▁swore	-10.717
▁fardel	-10.717
▁haught	-10.717
▁smother	-10.717
▁clamour	-10.717
▁approve	-10.717
▁Methought	-10.717
▁coronation	-10.717
▁prime	-10.717
▁wipe	-10.717
▁Green	-10.717
▁liking	-10.717
▁balm	-10.717
▁churchyard	-10.717
▁Wiltshire	-10.717
▁cherish	-10.717
▁rapier	-10.717
▁carried	-10.717
▁pitiful	-10.717
▁shade	-10.717
▁Justice	-10.717
▁amiss	-10.717
▁bread	-10.717
▁stale	-10.717
▁physician	-10.717
▁mask	-10.717
▁haunt	-10.717
▁alms	-10.717
▁hazard	-10.717
▁spark	-10.717
▁borrow	-10.717
▁shook	-10.717
▁midnight	-10.717
▁price	-10.717
▁honey	-10.717
▁commonwealth	-10.717
▁Another	-10.717
▁cram	-10.717
▁hurl	-10.717
▁paid	-10.717
▁shop	-10.7171
▁dower	-10.7171
▁careful	-10.7171
▁Shore	-10.7171
▁main	-10.7171
▁Prov	-10.7171
▁Full	-10.7171
▁nobility	-10.7172
etch	-10.7172
▁sought	-10.7172
▁mountain	-10.7172
▁courtier	-10.7172
▁pace	-10.7173
▁childish	-10.7174
▁Hang	-10.7174
▁Sometime	-10.7174
▁bore	-10.7174
▁succession	-10.7174
▁lengthen	-10.7175
▁Anne	-10.7175
▁skill	-10.7176
▁bestow	-10.7176
▁neat	-10.7176
▁conqueror	-10.7176
▁wolf	-10.7177
▁Jesu	-10.7177
▁rear	-10.7177
▁fro	-10.7177
▁hungry	-10.7178
▁royalty	-10.7178
▁damn	-10.7178
▁apprehend	-10.7178
▁drunken	-10.718
▁metal	-10.718
▁pinch	-10.718
▁senseless	-10.7181
▁Find	-10.7181
▁pick	-10.7181
▁hail	-10.7182
▁unfold	-10.7182
▁tutor	-10.7182
▁Wherefore	-10.7183
▁Dido	-10.7183
headed	-10.7184
▁behavior	-10.7184
▁methought	-10.7185
▁lying	-10.7186
▁putting	-10.7186
▁sadness	-10.7186
▁befall	-10.7187
▁injury	-10.7188
▁deaf	-10.7188
▁Remember	-10.7189
▁reach	-10.719
▁forthwith	-10.719
▁abhorr	-10.7191
▁madness	-10.7192
▁Whereto	-10.7192
▁thereby	-10.7195
▁bleeding	-10.7195
▁prevented	-10.7196
▁brown	-10.7198
▁inclined	-10.72
▁dispersed	-10.72
▁livery	-10.72
▁maiden	-10.7201
▁Man	-10.7205
▁anointed	-10.7209
▁bands	-10.7209
▁rein	-10.7212
▁stern	-10.7213
▁stead	-10.7213
▁whereon	-10.7213
▁shallow	-10.7215
▁flame	-10.7217
cy	-10.7217
▁lower	-10.7217
▁bit	-10.7219
▁bitterly	-10.7221
▁burnt	-10.7226
▁melt	-10.7232
▁govern	-10.7234
▁rue	-10.7251
fully	-10.7254
▁Oh	-10.7258
▁limbs	-10.7261
▁burning	-10.7261
▁rebels	-10.7261
▁waves	-10.7288
▁heels	-10.7289
aming	-10.7298
▁whore	-10.7299
▁ward	-10.7305
▁likeness	-10.7308
▁steps	-10.7313
▁joints	-10.7315
▁bowl	-10.7315
▁hu	-10.7315
▁sooner	-10.7319
▁forty	-10.7325
▁bent	-10.7328
▁consume	-10.7332
▁wanting	-10.7335
here	-10.7338
▁pr	-10.7339
▁quarter	-10.7339
▁troops	-10.734
▁nest	-10.7341
ship	-10.7351
▁wooing	-10.7361
▁advised	-10.7365
▁suitors	-10.7368
▁Con	-10.7373
▁griefs	-10.739
▁birds	-10.7419
▁affords	-10.7419
▁Mars	-10.742
▁Ely	-10.7432
▁caps	-10.7442
▁months	-10.7445
▁praises	-10.7448
▁breathing	-10.7475
MOR	-10.7492
▁shapes	-10.7498
▁guests	-10.7499
▁sleeping	-10.7507
▁saints	-10.7526
▁parted	-10.7532
rry	-10.754
▁inquire	-10.7541
▁sorrows	-10.7543
▁ah	-10.755
lt	-10.7564
od	-10.7573
▁west	-10.7579
▁bri	-10.7582
▁burns	-10.7635
de	-10.7638
▁officers	-10.7662
▁ape	-10.7674
▁sings	-10.7683
▁assist	-10.7696
sk	-10.7713
▁actions	-10.7741
▁Whiles	-10.7768
▁senses	-10.7768
▁Ten	-10.7768
late	-10.7772
▁dogs	-10.7795
▁De	-10.7807
▁minds	-10.7829
OR	-10.7839
▁rights	-10.7852
▁bo	-10.7867
▁al	-10.7879
NA	-10.7883
rew	-10.7893
ink	-10.7909
▁ale	-10.7929
▁moves	-10.7937
om	-10.7955
the	-10.7963
▁du	-10.7989
▁likely	-10.7994
▁l	-10.8005
▁suits	-10.8015
▁offices	-10.8052
▁riches	-10.808
▁sur	-10.8089
um	-10.8098
we	-10.81
ham	-10.8105
owl	-10.8111
▁mere	-10.8143
▁yields	-10.8216
wit	-10.8219
ie	-10.8222
ace	-10.8233
▁Po	-10.8262
ul	-10.8277
▁owes	-10.8313
mon	-10.8315
▁Sit	-10.8316
▁thinking	-10.8321
▁pro	-10.8378
▁telling	-10.8384
ft	-10.8417
▁tend	-10.844
dnes	-10.8444
red	-10.8444
▁den	-10.8453
▁Hi	-10.8457
ush	-10.8469
ook	-10.8479
▁ages	-10.8483
▁omit	-10.8502
take	-10.8547
▁fathers	-10.8553
▁pett	-10.8554
▁pierc	-10.856
▁earl	-10.8594
gs	-10.8601
G	-10.8616
▁marvel	-10.864
▁extreme	-10.8645
▁mi	-10.8649
▁helm	-10.865
▁accusation	-10.8651
▁complexion	-10.8651
▁flood	-10.8651
▁fiend	-10.8651
▁cat	-10.8652
foot	-10.8652
▁coat	-10.8653
▁circumstance	-10.8659
▁thorn	-10.8659
▁grey	-10.8662
▁Mis	-10.8664
▁step	-10.8669
▁steed	-10.8671
▁leg	-10.8675
▁complaint	-10.8682
▁U	-10.8685
▁tree	-10.8701
▁whit	-10.8728
▁greeting	-10.8729
but	-10.8739
dieu	-10.8739
bove	-10.874
▁reconcile	-10.8751
▁stumble	-10.8751
▁confine	-10.8751
▁purge	-10.8751
shape	-10.8751
▁persuade	-10.8751
▁joint	-10.8752
▁preserve	-10.8756
govern	-10.8756
fellow	-10.8759
right	-10.8761
▁fix	-10.8761
blood	-10.8762
which	-10.8762
possess	-10.8764
made	-10.8764
▁depose	-10.8765
horse	-10.8766
▁line	-10.879
▁Play	-10.8791
▁concern	-10.8796
▁fat	-10.8798
▁conquer	-10.8804
▁begg	-10.8805
rge	-10.8805
▁neglect	-10.8812
▁resist	-10.8814
▁detest	-10.8814
that	-10.8815
▁furnish	-10.882
▁rob	-10.882
▁restrain	-10.8825
▁prosper	-10.8832
run	-10.8832
▁vouch	-10.8832
▁Shal	-10.8833
▁rush	-10.8833
▁tail	-10.8833
ist	-10.8834
▁elde	-10.8835
▁vent	-10.8835
aoler	-10.8835
▁frail	-10.8836
▁purp	-10.8836
▁narrow	-10.8836
▁nettle	-10.8836
▁Antigonus	-10.8836
▁Appear	-10.8836
▁Bagot	-10.8836
▁Benvolio	-10.8836
▁Blunt	-10.8836
▁Burgundy	-10.8836
▁Captain	-10.8836
▁Comfort	-10.8836
▁Coventry	-10.8836
▁Gardener	-10.8836
▁Patience	-10.8836
▁Perhaps	-10.8836
▁Persuade	-10.8836
▁Proclaim	-10.8836
▁Ravenspurgh	-10.8836
▁Swear	-10.8836
▁Virtu	-10.8836
▁Vouchsafe	-10.8836
▁Women	-10.8836
▁afraid	-10.8836
▁allegiance	-10.8836
▁approbation	-10.8836
▁cabin	-10.8836
▁conquest	-10.8836
▁defy	-10.8836
▁delicate	-10.8836
▁divorce	-10.8836
▁entrance	-10.8836
▁estimation	-10.8836
▁falcon	-10.8836
▁frank	-10.8836
▁integrity	-10.8836
▁lecture	-10.8836
▁lewd	-10.8836
▁lodging	-10.8836
▁pearl	-10.8836
▁philosophy	-10.8836
▁pomp	-10.8836
▁poverty	-10.8836
▁satisfaction	-10.8836
▁scratch	-10.8836
▁serpent	-10.8836
▁shriek	-10.8836
▁signify	-10.8836
▁stream	-10.8836
▁sufficient	-10.8836
▁swoon	-10.8836
▁tyrannous	-10.8836
▁varlet	-10.8836
▁Minola	-10.8836
▁bridal	-10.8836
▁function	-10.8836
▁middle	-10.8836
▁milk	-10.8836
▁procure	-10.8836
▁raven	-10.8836
▁settled	-10.8836
▁Else	-10.8836
▁False	-10.8836
▁Saw	-10.8836
▁freedom	-10.8836
▁strict	-10.8836
▁Withdraw	-10.8836
▁also	-10.8836
▁array	-10.8836
▁bowels	-10.8836
▁crutch	-10.8836
▁apace	-10.8836
▁load	-10.8836
▁picture	-10.8836
▁enrich	-10.8836
▁pedlar	-10.8836
▁beef	-10.8836
▁ashamed	-10.8836
▁lute	-10.8836
▁jade	-10.8836
▁crook	-10.8836
▁crush	-10.8836
▁Venice	-10.8836
▁constable	-10.8836
▁clean	-10.8836
▁errand	-10.8836
▁esteem	-10.8836
▁ransom	-10.8836
▁token	-10.8836
▁volume	-10.8836
▁busy	-10.8836
▁destruction	-10.8836
▁Nature	-10.8836
▁infer	-10.8836
▁kinsmen	-10.8836
▁droop	-10.8837
▁loathsome	-10.8837
▁mutinous	-10.8837
▁thieves	-10.8837
▁fleet	-10.8837
▁partner	-10.8837
▁pilgrimage	-10.8837
▁eleven	-10.8837
▁strain	-10.8837
▁members	-10.8837
▁strip	-10.8837
▁interchange	-10.8837
▁drew	-10.8837
▁recover	-10.8837
▁wring	-10.8837
▁Neither	-10.8837
▁Deserve	-10.8837
Sunday	-10.8837
▁grandam	-10.8837
▁fray	-10.8837
▁unkindness	-10.8837
▁spread	-10.8837
▁vanity	-10.8837
▁budge	-10.8838
▁cook	-10.8838
▁fever	-10.8838
▁linger	-10.8838
▁counsellor	-10.8838
▁readiness	-10.8838
▁Yield	-10.8838
▁Shame	-10.8838
▁Alb	-10.8838
▁slight	-10.8838
▁departure	-10.8838
▁sum	-10.8838
▁merchant	-10.8838
▁Curtis	-10.8838
▁parcel	-10.8838
▁rouse	-10.8839
▁devilish	-10.8839
▁curtain	-10.8839
▁mould	-10.8839
▁search	-10.8839
▁beams	-10.8839
▁page	-10.884
▁likewise	-10.884
▁Trust	-10.884
▁bidding	-10.8841
▁cozen	-10.8841
▁multitude	-10.8841
▁Dian	-10.8841
▁vast	-10.8841
▁mildness	-10.8841
▁downright	-10.8842
▁friendship	-10.8842
▁eight	-10.8842
▁Break	-10.8842
▁signal	-10.8843
bert	-10.8844
▁undo	-10.8844
▁Tribunes	-10.8845
▁burden	-10.8845
▁goddess	-10.8845
▁difference	-10.8845
▁stolen	-10.8845
▁tailor	-10.8845
▁buckle	-10.8845
vail	-10.8845
▁upright	-10.8846
▁entreaties	-10.8846
▁starve	-10.8846
▁darkness	-10.8846
▁cloudy	-10.8846
▁amain	-10.8847
rong	-10.8848
▁Lead	-10.8849
▁careless	-10.8849
▁instantly	-10.8849
▁heavier	-10.885
▁hole	-10.885
▁eaten	-10.885
▁ourself	-10.8851
ister	-10.8852
▁Part	-10.8852
▁boldness	-10.8853
▁youthful	-10.8853
▁flat	-10.8854
▁chosen	-10.8854
▁Wors	-10.8857
▁pot	-10.8857
▁dash	-10.8859
shine	-10.8859
▁captive	-10.886
▁bay	-10.886
▁frost	-10.886
▁sil	-10.8863
▁aspect	-10.8865
▁betide	-10.8866
▁beaten	-10.8866
▁parties	-10.8868
▁attain	-10.8869
▁kisses	-10.887
▁goose	-10.887
▁tempted	-10.8871
▁sat	-10.8874
▁witch	-10.8875
shall	-10.8875
repare	-10.8875
▁except	-10.8876
▁farm	-10.8876
▁herald	-10.8878
▁Fit	-10.8882
▁shoes	-10.8883
▁cowardly	-10.8886
cur	-10.8886
▁robes	-10.8887
▁fondly	-10.8889
▁support	-10.8891
▁tomorrow	-10.8895
;--	-10.8896
▁gape	-10.8897
▁condemned	-10.8898
arry	-10.8898
▁suddenly	-10.89
▁amorous	-10.8902
▁laws	-10.8904
▁cheerly	-10.8906
▁ambitio	-10.8906
▁wisely	-10.8919
▁nobleness	-10.8921
▁tired	-10.8921
▁seated	-10.8929
▁boldly	-10.8932
▁physic	-10.8936
▁importune	-10.8941
▁rescue	-10.8941
▁waked	-10.8945
▁pent	-10.8946
▁parents	-10.8946
▁amends	-10.8946
▁sacrifice	-10.8949
▁tied	-10.8956
▁retired	-10.8959
▁soil	-10.8966
▁learned	-10.8976
▁grieved	-10.8977
▁keys	-10.8977
▁musicians	-10.8977
▁flattering	-10.8982
ren	-10.8985
▁notice	-10.8989
▁seized	-10.9004
kin	-10.901
▁clock	-10.9012
gent	-10.9014
▁severe	-10.9021
▁ice	-10.9024
▁sounded	-10.9027
▁height	-10.9035
▁noon	-10.9036
▁marvell	-10.9037
▁weapons	-10.904
▁CAR	-10.9043
eft	-10.9046
▁fel	-10.9048
▁landed	-10.9058
▁Touch	-10.9069
▁sentenced	-10.9074
▁graced	-10.9075
▁designs	-10.9103
▁lovers	-10.9105
liness	-10.9116
▁anchor	-10.9125
▁sole	-10.9127
▁bough	-10.9129
▁earthly	-10.913
▁ended	-10.9133
▁gifts	-10.9135
▁lions	-10.9135
▁grieves	-10.9138
▁troubled	-10.9154
▁sold	-10.9156
▁brains	-10.9167
▁tricks	-10.9167
▁bastards	-10.9167
▁couldst	-10.9175
▁eng	-10.918
▁mew	-10.9187
▁ministers	-10.9199
▁dearer	-10.9203
ze	-10.921
ounds	-10.9219
▁Cl	-10.922
▁neighbours	-10.9231
▁fur	-10.9261
▁storms	-10.9263
▁lambs	-10.9263
▁lists	-10.9263
▁holding	-10.9264
▁ships	-10.9297
▁sweetly	-10.9301
▁fingers	-10.9324
▁tops	-10.9335
wards	-10.9338
▁value	-10.9353
mo	-10.9371
▁winters	-10.9392
tha	-10.9408
ni	-10.9497
▁favours	-10.9522
x	-10.953
ob	-10.9541
▁theirs	-10.9555
▁livest	-10.9563
ver	-10.9586
▁towns	-10.9588
ps	-10.9596
▁places	-10.9601
▁cor	-10.9611
P	-10.9618
▁victor	-10.9618
▁aged	-10.9623
▁saved	-10.9644
▁takest	-10.9675
▁sc	-10.9685
▁Sp	-10.9708
ations	-10.9718
long	-10.9729
ally	-10.9778
▁drie	-10.9822
▁pu	-10.9834
im	-10.9835
▁Mak	-10.9862
▁lour	-10.987
▁bud	-10.9908
▁guide	-10.9917
▁fla	-10.9926
rch	-10.9958
ba	-10.9973
specially	-10.9997
▁Arm	-11
▁backs	-11.0012
my	-11.004
▁se	-11.0074
king	-11.0081
▁sides	-11.0094
ma	-11.0103
▁bas	-11.0105
▁Br	-11.0124
▁fitt	-11.0129
▁butt	-11.0134
▁bu	-11.0139
ot	-11.0171
▁beats	-11.0172
▁lamentabl	-11.0172
mi	-11.0223
▁wears	-11.0231
iest	-11.0245
▁thankful	-11.0247
▁Sly	-11.0252
ible	-11.0268
▁revenges	-11.0277
▁contents	-11.0338
wing	-11.0339
▁Add	-11.0358
ite	-11.0368
ial	-11.0368
ins	-11.037
arm	-11.0372
▁rub	-11.0494
▁sounds	-11.0511
▁curs	-11.052
ated	-11.0554
ress	-11.0557
▁ble	-11.0559
rrow	-11.0573
▁wave	-11.0597
▁gra	-11.0616
lier	-11.0635
aken	-11.0637
ray	-11.064
▁cloud	-11.0642
▁require	-11.0643
▁speaking	-11.065
▁GE	-11.065
▁lamentation	-11.0654
▁villains	-11.0655
▁depend	-11.0656
mong	-11.0657
▁spider	-11.0659
▁Volscian	-11.0664
▁key	-11.0667
▁musician	-11.0669
▁bill	-11.0673
▁window	-11.0674
scape	-11.0687
▁Thank	-11.0689
is	-11.0697
▁hill	-11.0699
go	-11.07
▁willing	-11.0706
got	-11.0709
pothecary	-11.0724
ctor	-11.0725
head	-11.0743
▁oppose	-11.0752
▁hoar	-11.0754
▁divide	-11.0754
▁discharge	-11.0755
▁peer	-11.0755
antic	-11.0756
▁beguile	-11.0757
▁tire	-11.0758
bury	-11.0758
▁tie	-11.076
water	-11.0761
fresh	-11.0761
work	-11.0761
What	-11.0762
back	-11.0762
came	-11.0762
lock	-11.0764
stride	-11.0768
▁dine	-11.0769
▁pen	-11.0772
cast	-11.079
▁beside	-11.0793
▁rend	-11.0797
carries	-11.0799
He	-11.08
▁whisper	-11.0802
▁swears	-11.0805
▁arrest	-11.0812
▁compound	-11.0812
▁manifest	-11.0814
▁distress	-11.0815
▁prate	-11.0816
stone	-11.0816
▁nigh	-11.0817
▁unwilling	-11.0818
▁nice	-11.0818
ark	-11.0818
longs	-11.0821
▁instant	-11.0821
▁monarch	-11.0822
▁luck	-11.0822
▁Read	-11.0824
▁bait	-11.0824
▁ink	-11.0828
▁chose	-11.0828
ruly	-11.0829
▁silk	-11.0833
▁unfi	-11.0833
▁Christ	-11.0836
▁imprison	-11.0836
ieutenant	-11.0836
▁grand	-11.0836
Patrician	-11.0836
shearing	-11.0836
▁Answer	-11.0836
▁Antium	-11.0836
▁Antonio	-11.0836
▁Ariel	-11.0836
▁Bishop	-11.0836
▁Brittany	-11.0836
▁Carthage	-11.0836
▁Condemn	-11.0836
▁Confess	-11.0836
▁Cupid	-11.0836
▁Foul	-11.0836
▁Jupiter	-11.0836
▁Neptune	-11.0836
▁Pembroke	-11.0836
▁Scotland	-11.0836
▁Smile	-11.0836
▁Sycorax	-11.0836
▁Tarpeian	-11.0836
▁Tewksbury	-11.0836
▁Tunis	-11.0836
▁Walter	-11.0836
▁acknowledge	-11.0836
▁adverse	-11.0836
▁aloud	-11.0836
▁bliss	-11.0836
▁blue	-11.0836
▁boisterous	-11.0836
▁calamity	-11.0836
▁champion	-11.0836
▁climate	-11.0836
▁conclusion	-11.0836
▁confederate	-11.0836
▁device	-11.0836
▁displeasure	-11.0836
▁disturb	-11.0836
▁dumb	-11.0836
▁forsooth	-11.0836
▁gaunt	-11.0836
▁harbour	-11.0836
▁harvest	-11.0836
▁humility	-11.0836
▁imagination	-11.0836
▁injustice	-11.0836
▁innocence	-11.0836
▁lamp	-11.0836
▁lenity	-11.0836
▁likelihood	-11.0836
▁magistrate	-11.0836
▁marshal	-11.0836
▁mischief	-11.0836
▁model	-11.0836
▁moiety	-11.0836
▁moving	-11.0836
▁nightingale	-11.0836
▁pilot	-11.0836
▁pocket	-11.0836
▁prophecy	-11.0836
▁puissan	-11.0836
▁pupil	-11.0836
▁rebuke	-11.0836
▁redemption	-11.0836
▁requite	-11.0836
▁river	-11.0836
▁sack	-11.0836
▁session	-11.0836
▁shrink	-11.0836
▁spectacle	-11.0836
▁split	-11.0836
▁strait	-11.0836
▁vulgar	-11.0836
▁Attend	-11.0836
▁Command	-11.0836
▁Measure	-11.0836
▁egg	-11.0836
▁exceed	-11.0836
▁harlot	-11.0836
▁harmony	-11.0836
▁lunatic	-11.0836
▁plebeians	-11.0836
▁sap	-11.0836
▁vial	-11.0836
▁Kent	-11.0836
▁Kind	-11.0836
▁Troy	-11.0836
▁drunkard	-11.0836
▁insult	-11.0836
▁leaving	-11.0836
▁nourish	-11.0836
▁serious	-11.0836
▁veil	-11.0836
▁coast	-11.0836
▁creep	-11.0836
▁smiling	-11.0836
▁whoreson	-11.0836
▁unlawful	-11.0836
▁steep	-11.0836
▁familiar	-11.0836
▁midwife	-11.0836
▁rumour	-11.0836
▁Kill	-11.0836
▁crept	-11.0836
▁bereft	-11.0836
▁moe	-11.0836
▁stiff	-11.0836
▁Enforce	-11.0836
▁compare	-11.0836
▁popular	-11.0836
▁afeard	-11.0836
▁arise	-11.0836
▁dancing	-11.0836
▁cloak	-11.0836
▁grim	-11.0836
▁safeguard	-11.0836
▁drift	-11.0836
▁print	-11.0836
▁decay	-11.0836
▁consequence	-11.0836
▁forehead	-11.0836
▁yare	-11.0836
▁prating	-11.0836
▁Fellow	-11.0836
▁heinous	-11.0836
▁confusion	-11.0836
▁maidenhead	-11.0836
▁recreant	-11.0836
▁throng	-11.0837
▁Teach	-11.0837
▁history	-11.0837
▁unseen	-11.0837
▁confidence	-11.0837
▁exact	-11.0837
▁pursuit	-11.0837
▁rope	-11.0837
▁straw	-11.0837
▁ceremonious	-11.0837
▁crab	-11.0837
▁Fall	-11.0837
▁wedded	-11.0837
▁mouse	-11.0837
▁schoolmaster	-11.0837
▁file	-11.0837
▁shot	-11.0837
▁mustard	-11.0837
▁sacrament	-11.0837
▁bounty	-11.0837
▁race	-11.0837
▁mistaking	-11.0837
▁Commit	-11.0837
▁Isabella	-11.0837
▁fox	-11.0837
▁jar	-11.0837
▁Writ	-11.0837
▁groom	-11.0837
▁eternal	-11.0837
▁flock	-11.0837
▁front	-11.0837
▁trod	-11.0837
▁contain	-11.0837
▁ranco	-11.0837
▁park	-11.0837
▁sensible	-11.0837
▁stark	-11.0837
▁cords	-11.0837
▁eag	-11.0838
▁lick	-11.0838
▁trifles	-11.0838
▁oppression	-11.0838
▁prosperity	-11.0838
▁cool	-11.0838
▁dragon	-11.0838
▁loyalty	-11.0838
▁impeach	-11.0838
▁prophesy	-11.0838
▁impress	-11.0838
▁otherwise	-11.0838
▁downfall	-11.0838
▁correction	-11.0838
▁venture	-11.0838
▁pate	-11.0838
▁damnable	-11.0839
▁dram	-11.0839
▁Weep	-11.0839
▁bail	-11.0839
▁Thyself	-11.0839
▁royalties	-11.0839
▁Talk	-11.0839
▁perjured	-11.0839
▁blaze	-11.0839
▁Suppose	-11.0839
▁nimble	-11.0839
▁compassion	-11.084
▁gather	-11.084
▁branches	-11.084
▁dim	-11.084
▁cushion	-11.084
▁ashes	-11.084
▁corruption	-11.084
▁bald	-11.084
▁torn	-11.0841
▁rushes	-11.0841
▁faction	-11.0841
▁trow	-11.0841
▁lief	-11.0841
▁sufferance	-11.0841
▁igno	-11.0842
▁visitation	-11.0842
▁unruly	-11.0843
▁Six	-11.0843
▁perfection	-11.0843
▁skin	-11.0843
▁destiny	-11.0843
▁moody	-11.0843
▁branch	-11.0843
▁hinder	-11.0843
▁cave	-11.0844
▁dislike	-11.0844
▁combat	-11.0844
▁tut	-11.0845
▁dart	-11.0846
▁din	-11.0846
▁dug	-11.0846
▁despised	-11.0846
▁glasses	-11.0847
▁Content	-11.0847
▁folks	-11.0847
▁leap	-11.0847
▁blade	-11.0847
▁midst	-11.0847
tardy	-11.0847
▁quake	-11.0847
▁sunder	-11.0847
▁gust	-11.0848
▁hag	-11.0848
▁Ready	-11.0849
twould	-11.0849
▁sitting	-11.0849
▁advocate	-11.0849
trees	-11.0851
wice	-11.0852
▁baby	-11.0852
▁confession	-11.0854
▁wonderful	-11.0854
▁leaden	-11.0854
▁plate	-11.0854
▁smallest	-11.0855
▁devour	-11.0856
The	-11.0857
▁kites	-11.0858
▁statutes	-11.0858
▁pour	-11.0858
▁confessor	-11.0859
▁flay	-11.086
▁brotherhood	-11.0861
▁ripen	-11.0862
▁murderous	-11.0862
▁nap	-11.0863
▁roof	-11.0863
▁tenderness	-11.0863
▁woeful	-11.0864
▁bishop	-11.0864
▁changing	-11.0865
▁pitied	-11.0865
▁grass	-11.0865
▁infected	-11.0867
▁heel	-11.0868
▁lace	-11.0868
▁stol	-11.0868
▁hangman	-11.0868
▁whispering	-11.0871
▁Run	-11.0871
▁apart	-11.0872
▁whatsoever	-11.0873
▁test	-11.0873
▁mildly	-11.0874
▁host	-11.0877
▁path	-11.0879
▁doubtful	-11.0879
▁covert	-11.088
▁Cut	-11.0881
▁growth	-11.0881
▁considered	-11.0881
▁render	-11.0884
▁deer	-11.0887
▁incensed	-11.0891
▁ugl	-11.0893
▁ornaments	-11.0895
▁thereto	-11.0896
▁advanced	-11.0899
▁wrinkled	-11.0899
▁bench	-11.0902
▁Join	-11.0909
rald	-11.0914
▁blushing	-11.0917
▁mourning	-11.0917
▁lesson	-11.092
sheathe	-11.0922
▁scape	-11.0922
▁entreaty	-11.0926
▁avoided	-11.0927
▁da	-11.0928
▁speedy	-11.0928
pence	-11.093
▁allay	-11.0931
▁mates	-11.0931
▁dealing	-11.0932
▁deceive	-11.0933
▁taunts	-11.0934
▁proceedings	-11.0934
▁li	-11.0935
BI	-11.0936
▁dined	-11.0937
▁flatterers	-11.0942
▁doublet	-11.0943
ames	-11.0946
custom	-11.0947
▁lodged	-11.0952
▁commit	-11.0956
▁BA	-11.0957
▁score	-11.0957
▁arch	-11.0959
▁provided	-11.0963
ise	-11.0964
▁start	-11.0967
▁nails	-11.0973
▁actor	-11.0975
▁glo	-11.0978
▁event	-11.0985
▁soar	-11.0988
▁disgraced	-11.0988
▁choke	-11.0989
▁dame	-11.0993
▁vassal	-11.0993
▁murdered	-11.0994
▁dearth	-11.1001
▁enforced	-11.1006
▁Volscians	-11.1012
▁awe	-11.1015
▁Ned	-11.1017
▁drinking	-11.1024
▁extremes	-11.1029
▁ut	-11.1033
▁suffering	-11.104
▁warn	-11.104
▁sow	-11.1049
▁reported	-11.1052
▁framed	-11.1053
▁endured	-11.1061
▁herein	-11.1076
▁worms	-11.109
▁stocks	-11.109
▁minutes	-11.109
▁crows	-11.109
▁shown	-11.1102
▁fan	-11.1112
aged	-11.1113
▁learning	-11.1126
▁angels	-11.1128
▁Curse	-11.1129
▁toads	-11.1129
▁lads	-11.113
▁wronged	-11.1131
▁trees	-11.1136
ford	-11.1138
▁yielding	-11.1138
▁weal	-11.114
▁crying	-11.1157
▁aims	-11.117
aft	-11.117
▁falls	-11.1171
our	-11.1187
▁fully	-11.1188
▁roses	-11.1199
no	-11.12
▁inch	-11.1227
ler	-11.1228
ash	-11.123
taking	-11.1233
▁asking	-11.1241
▁spurs	-11.1252
▁Da	-11.126
▁pla	-11.1267
ile	-11.1269
dropp	-11.1279
▁hedge	-11.1282
▁brand	-11.1283
▁intents	-11.1289
istake	-11.1328
▁j	-11.1329
▁shoulders	-11.1335
▁knowing	-11.1353
▁commends	-11.1369
▁numbers	-11.137
ph	-11.1381
rp	-11.1393
▁talking	-11.1395
▁plants	-11.1407
▁falling	-11.1409
▁Capulets	-11.145
▁springs	-11.145
▁diest	-11.1488
▁pine	-11.149
▁beggars	-11.1493
▁permit	-11.1501
▁evils	-11.1502
ti	-11.1516
▁reigns	-11.1531
▁happi	-11.1557
oo	-11.1583
▁meal	-11.1586
▁beseem	-11.164
aking	-11.1644
▁cop	-11.165
▁feebl	-11.1656
rish	-11.1667
ean	-11.1692
▁secrets	-11.1697
▁sees	-11.1699
▁runn	-11.1702
mas	-11.1704
▁bra	-11.1717
▁helps	-11.1734
▁believed	-11.1755
ties	-11.1764
▁acts	-11.1777
▁knocks	-11.178
▁feasts	-11.1783
▁fact	-11.1795
▁chances	-11.1863
rest	-11.1889
tard	-11.1891
▁troubl	-11.1907
▁Intend	-11.1932
▁adder	-11.1961
▁breasts	-11.199
set	-11.2012
EPH	-11.2029
▁appears	-11.2034
bod	-11.2155
▁takes	-11.2158
▁murders	-11.2213
gging	-11.2235
▁sca	-11.2244
▁bosoms	-11.2248
▁devils	-11.2292
▁looker	-11.2313
▁aspir	-11.2316
seeming	-11.232
sp	-11.2335
nut	-11.2336
▁fu	-11.2345
▁Bad	-11.2357
ery	-11.2365
hine	-11.2394
nea	-11.2397
▁hencefor	-11.244
▁mus	-11.2442
▁scare	-11.2455
▁sith	-11.248
▁pie	-11.2498
▁sl	-11.2526
▁Montagues	-11.2555
ho	-11.2582
she	-11.2613
▁charges	-11.2614
hol	-11.2622
awn	-11.2631
press	-11.2665
▁commands	-11.2693
ips	-11.2701
maker	-11.2724
▁Co	-11.2749
▁Lam	-11.2796
▁marr	-11.2798
▁persons	-11.28
ugh	-11.2813
la	-11.2814
▁dep	-11.2826
ament	-11.2843
▁Jo	-11.2867
ith	-11.2871
▁tra	-11.2942
ating	-11.2956
▁qu	-11.2957
ade	-11.3024
▁needle	-11.3034
dges	-11.304
hall	-11.3045
can	-11.3056
▁im	-11.3063
▁fore	-11.307
urn	-11.3082
ask	-11.3083
▁Betw	-11.3086
▁breaks	-11.3097
mber	-11.31
eantime	-11.3113
ves	-11.3126
ence	-11.3128
hold	-11.3134
▁Jul	-11.3136
greed	-11.3136
▁bleed	-11.3148
▁shout	-11.3154
▁wheel	-11.3154
▁council	-11.3159
▁nail	-11.3164
▁liar	-11.3165
▁rebel	-11.3167
▁coal	-11.3169
▁Pre	-11.317
▁street	-11.3173
eeming	-11.3174
▁parent	-11.3181
▁moan	-11.3188
▁limb	-11.3189
live	-11.319
▁tribune	-11.3191
ex	-11.3214
MIL	-11.3226
▁arriv	-11.3228
hand	-11.3243
pen	-11.3244
void	-11.3247
shin	-11.3248
▁fen	-11.3248
male	-11.3249
▁subdue	-11.3251
fits	-11.3253
rown	-11.3254
▁disguise	-11.3255
▁gap	-11.3255
▁advance	-11.3256
▁create	-11.3256
stead	-11.3256
▁wrinkle	-11.3257
song	-11.3257
sign	-11.3257
▁wis	-11.3258
weigh	-11.3259
glass	-11.3259
room	-11.3259
grown	-11.3261
fire	-11.3261
hard	-11.3261
This	-11.3262
together	-11.3262
good	-11.3262
▁chop	-11.3263
▁boun	-11.3264
▁achieve	-11.3272
ably	-11.3275
your	-11.328
We	-11.3282
act	-11.3287
▁hum	-11.3292
▁abhor	-11.3297
▁admir	-11.3298
▁heavi	-11.3306
cels	-11.3315
▁wan	-11.3315
▁mast	-11.3316
light	-11.3316
▁Name	-11.3318
bound	-11.3321
▁dissemble	-11.3322
▁exp	-11.3322
▁thirst	-11.3323
▁flint	-11.3323
jured	-11.3323
▁forsake	-11.3325
▁drive	-11.3326
awful	-11.3327
▁gli	-11.3328
▁gaol	-11.3328
▁wra	-11.3329
▁prefer	-11.3329
shire	-11.333
raw	-11.3332
▁befal	-11.3332
uke	-11.3334
▁coz	-11.3334
▁injuri	-11.3334
ittle	-11.3334
▁correct	-11.3334
poke	-11.3334
▁hatch	-11.3335
onsider	-11.3335
randam	-11.3336
▁succ	-11.3336
▁inherit	-11.3336
imple	-11.3336
▁Just	-11.3336
▁Cast	-11.3336
▁confer	-11.3336
▁rival	-11.3336
Proud	-11.3336
egenerate	-11.3336
nque	-11.3336
ppet	-11.3336
▁Advance	-11.3336
▁Affection	-11.3336
▁Antiates	-11.3336
▁Calais	-11.3336
▁Christopher	-11.3336
▁Cleomenes	-11.3336
▁Desire	-11.3336
▁Doricles	-11.3336
▁Elizabeth	-11.3336
▁Emilia	-11.3336
▁Florizel	-11.3336
▁Greece	-11.3336
▁Gregory	-11.3336
▁Hercules	-11.3336
▁Knock	-11.3336
▁Lodowick	-11.3336
▁Neighbour	-11.3336
▁Overdone	-11.3336
▁Phaethon	-11.3336
▁Phoebus	-11.3336
▁Renown	-11.3336
▁Rescue	-11.3336
▁Tarquin	-11.3336
▁Twenty	-11.3336
▁Welshmen	-11.3336
▁aloof	-11.3336
▁amazement	-11.3336
▁appellant	-11.3336
▁apprehension	-11.3336
▁assault	-11.3336
▁baggage	-11.3336
▁bankrupt	-11.3336
▁blank	-11.3336
▁bottle	-11.3336
▁bulk	-11.3336
▁calumny	-11.3336
▁caparison	-11.3336
▁capital	-11.3336
▁centre	-11.3336
▁chastity	-11.3336
▁climb	-11.3336
▁controversy	-11.3336
▁cordial	-11.3336
▁cuckold	-11.3336
▁debase	-11.3336
▁defect	-11.3336
▁diadem	-11.3336
▁digest	-11.3336
▁discords	-11.3336
▁dissolut	-11.3336
▁earldom	-11.3336
▁ebb	-11.3336
▁elsewhere	-11.3336
▁entire	-11.3336
▁entrails	-11.3336
▁expedition	-11.3336
▁famish	-11.3336
▁festival	-11.3336
▁greyhound	-11.3336
▁gulf	-11.3336
▁hazel	-11.3336
▁highway	-11.3336
▁homage	-11.3336
▁horror	-11.3336
▁hurried	-11.3336
▁impatience	-11.3336
▁impatient	-11.3336
▁impediment	-11.3336
▁imperial	-11.3336
▁inclination	-11.3336
▁inconstant	-11.3336
▁indifferent	-11.3336
▁infringe	-11.3336
▁insolence	-11.3336
▁jocund	-11.3336
▁liqu	-11.3336
▁magic	-11.3336
▁mariners	-11.3336
▁mirror	-11.3336
▁muffle	-11.3336
▁necessary	-11.3336
▁niece	-11.3336
▁notwithstanding	-11.3336
▁penitence	-11.3336
▁persuasion	-11.3336
▁planet	-11.3336
▁pledge	-11.3336
▁powder	-11.3336
▁precedent	-11.3336
▁prerogative	-11.3336
▁privy	-11.3336
▁prunes	-11.3336
▁raiment	-11.3336
▁regiment	-11.3336
▁region	-11.3336
▁relish	-11.3336
▁remedies	-11.3336
▁remiss	-11.3336
▁repetition	-11.3336
▁resolute	-11.3336
▁rheum	-11.3336
▁saucy	-11.3336
▁scholar	-11.3336
▁shift	-11.3336
▁shoot	-11.3336
▁solicit	-11.3336
▁strumpet	-11.3336
▁sugar	-11.3336
▁suppliant	-11.3336
▁supreme	-11.3336
▁territories	-11.3336
▁testimony	-11.3336
▁treachery	-11.3336
▁trencher	-11.3336
▁tribe	-11.3336
▁tumble	-11.3336
▁turtle	-11.3336
▁villany	-11.3336
▁vineyard	-11.3336
▁wilful	-11.3336
▁witchcraft	-11.3336
ficial	-11.3336
▁Enough	-11.3336
▁Francis	-11.3336
▁Mariner	-11.3336
▁buzzard	-11.3336
▁contradict	-11.3336
▁follies	-11.3336
▁obtain	-11.3336
▁ragged	-11.3336
▁spilt	-11.3336
▁syllable	-11.3336
▁tackle	-11.3336
▁tinker	-11.3336
▁treble	-11.3336
▁whistle	-11.3336
▁yellow	-11.3336
▁Arise	-11.3336
▁Banish	-11.3336
▁Fifth	-11.3336
▁canopy	-11.3336
▁composition	-11.3336
▁miseries	-11.3336
▁naught	-11.3336
▁pastime	-11.3336
▁posterity	-11.3336
▁resort	-11.3336
▁Back	-11.3336
▁ashore	-11.3336
▁coffin	-11.3336
▁headstrong	-11.3336
▁hearken	-11.3336
▁tragic	-11.3336
▁Percy	-11.3336
▁Wales	-11.3336
▁contrive	-11.3336
▁mole	-11.3336
▁staff	-11.3336
▁terrible	-11.3336
stool	-11.3336
▁Dispatch	-11.3336
▁drows	-11.3336
▁Honest	-11.3336
▁beetle	-11.3336
▁division	-11.3336
▁farthest	-11.3336
▁geld	-11.3336
▁reprieve	-11.3336
▁bodes	-11.3336
▁shelter	-11.3336
▁accent	-11.3336
▁awry	-11.3336
▁disorder	-11.3336
▁merciful	-11.3336
▁quaint	-11.3336
▁wolves	-11.3336
▁distinguish	-11.3336
▁Repent	-11.3336
▁swim	-11.3336
▁message	-11.3336
▁pattern	-11.3336
▁relieve	-11.3336
▁sleeve	-11.3336
▁Obey	-11.3336
journ	-11.3336
▁pestilence	-11.3336
▁sands	-11.3336
▁puff	-11.3336
▁blister	-11.3336
▁congeal	-11.3336
▁canker	-11.3336
▁lineament	-11.3336
▁grub	-11.3337
▁dump	-11.3337
▁napkin	-11.3337
▁Provide	-11.3337
▁chastisement	-11.3337
▁denial	-11.3337
▁merriment	-11.3337
▁beware	-11.3337
▁gainsay	-11.3337
▁lieutenant	-11.3337
▁usurer	-11.3337
▁overthrow	-11.3337
▁reproof	-11.3337
▁graft	-11.3337
▁garter	-11.3337
ix	-11.3337
▁mellow	-11.3337
▁link	-11.3337
▁divers	-11.3337
▁demi	-11.3337
▁dissen	-11.3337
▁beads	-11.3337
isome	-11.3337
▁mangle	-11.3337
▁bribe	-11.3337
▁chamberlain	-11.3337
▁box	-11.3337
▁loose	-11.3337
▁loins	-11.3337
▁lungs	-11.3338
▁stem	-11.3338
▁Brave	-11.3338
▁error	-11.3338
▁summon	-11.3338
▁admitted	-11.3338
▁helmet	-11.3338
▁medicine	-11.3338
▁tribute	-11.3338
▁choleric	-11.3338
▁assistance	-11.3338
▁tax	-11.3338
▁foil	-11.3338
▁gait	-11.3338
▁tried	-11.3338
▁mutiny	-11.3338
▁society	-11.3338
▁mockery	-11.3338
▁gasp	-11.3338
▁unfeigned	-11.3338
▁undergo	-11.3339
▁cowardice	-11.3339
▁perjury	-11.3339
▁slack	-11.3339
▁saddle	-11.3339
▁crew	-11.3339
▁impose	-11.3339
▁High	-11.3339
▁nerv	-11.3339
▁Place	-11.3339
▁boon	-11.3339
▁halt	-11.3339
▁freeze	-11.3339
▁solemnity	-11.3339
▁idly	-11.3339
▁tower	-11.334
▁brass	-11.334
▁herbs	-11.334
stand	-11.334
▁utterance	-11.334
▁unpleas	-11.334
▁sinew	-11.334
▁injuries	-11.334
▁pedant	-11.334
▁jealousies	-11.3341
▁Near	-11.3341
▁uncertain	-11.3341
▁plaints	-11.3341
▁silken	-11.3342
▁bandy	-11.3342
▁stinking	-11.3342
▁governor	-11.3342
▁square	-11.3342
raught	-11.3342
▁profession	-11.3343
▁rode	-11.3343
▁merrily	-11.3343
▁ladyship	-11.3343
▁dial	-11.3344
▁forgiveness	-11.3344
bush	-11.3344
▁sisterhood	-11.3344
swol	-11.3345
▁apply	-11.3346
broach	-11.3346
▁slipp	-11.3346
▁Sixth	-11.3347
▁worthily	-11.3347
tied	-11.3347
▁rent	-11.3347
▁glories	-11.3348
▁replied	-11.3349
▁advertised	-11.3349
▁cheerfully	-11.335
▁bank	-11.335
▁grandfather	-11.335
▁salute	-11.335
▁jump	-11.335
▁broad	-11.335
▁affright	-11.335
▁scour	-11.3351
▁candle	-11.3351
▁invention	-11.3351
▁heigh	-11.3351
▁spear	-11.3351
▁transported	-11.3352
▁reckoning	-11.3352
▁Hector	-11.3352
eize	-11.3352
▁lane	-11.3353
▁mantle	-11.3353
▁accomplish	-11.3353
▁wenches	-11.3354
▁crest	-11.3355
▁ambition	-11.3355
▁linen	-11.3356
▁string	-11.3356
▁unborn	-11.3356
▁Lovel	-11.3357
▁baseness	-11.3358
▁Forgive	-11.3358
▁footman	-11.3359
▁gaoler	-11.336
▁darken	-11.336
▁witnesses	-11.3362
▁fade	-11.3362
▁solely	-11.3362
gone	-11.3363
▁madman	-11.3363
▁chest	-11.3363
▁distressed	-11.3364
ATHA	-11.3364
▁stirring	-11.3364
▁shorten	-11.3365
upper	-11.3365
▁waken	-11.3365
▁poisonous	-11.3366
▁ext	-11.3366
▁ensue	-11.3366
▁merely	-11.3367
▁sung	-11.3368
ainst	-11.3368
▁safer	-11.3368
▁weighty	-11.3369
▁Merc	-11.3369
▁restraint	-11.337
▁publicly	-11.3371
▁restored	-11.3372
▁rising	-11.3373
▁tainted	-11.3373
▁yard	-11.3373
▁Verily	-11.3374
▁mutual	-11.3375
▁hunger	-11.3377
▁strengthen	-11.338
▁mill	-11.3381
▁warning	-11.3382
▁alarum	-11.3383
▁compe	-11.3386
▁counted	-11.3388
potent	-11.3389
▁comb	-11.3389
lung	-11.3389
▁contend	-11.339
▁pull	-11.339
mit	-11.3391
▁lineal	-11.3392
irl	-11.3392
▁shunn	-11.3392
▁lightness	-11.3394
▁extremest	-11.3394
▁roundly	-11.3394
▁beastly	-11.3395
▁whipt	-11.3395
▁louder	-11.3396
▁knit	-11.3397
▁Belike	-11.3397
▁siege	-11.3397
▁sm	-11.3399
▁couch	-11.34
▁frighted	-11.34
holds	-11.3406
▁fitted	-11.3406
uring	-11.3412
▁Player	-11.3413
▁poll	-11.3413
▁spices	-11.3414
▁rites	-11.3414
▁skulls	-11.3414
▁millions	-11.3414
ose	-11.3415
▁theme	-11.3416
▁bush	-11.3417
▁achieved	-11.3419
▁disguised	-11.3419
some	-11.3419
▁created	-11.3422
▁nobleman	-11.3423
▁sped	-11.3431
▁sle	-11.3433
▁feeding	-11.3433
▁whet	-11.3434
ect	-11.3436
▁begot	-11.3437
▁discharged	-11.3442
▁divided	-11.3442
▁breeding	-11.3446
▁fate	-11.3447
▁required	-11.3447
▁intended	-11.3447
▁amend	-11.3451
▁antic	-11.3455
▁Gold	-11.3458
▁gentler	-11.3458
▁chains	-11.3465
▁threats	-11.3465
▁gloves	-11.3465
▁stooping	-11.3466
▁rats	-11.347
▁preserved	-11.3471
▁bac	-11.3473
rain	-11.3481
▁suffice	-11.3482
▁Force	-11.3483
▁Fill	-11.3487
▁strongly	-11.3488
▁understanding	-11.3493
▁wisest	-11.3499
▁afoot	-11.3509
▁concluded	-11.3512
▁dra	-11.3516
▁coals	-11.3516
▁pronounced	-11.3517
▁bleeds	-11.3517
▁appeared	-11.3519
▁councils	-11.353
ope	-11.353
▁sued	-11.354
▁clap	-11.354
offer	-11.354
warm	-11.3541
▁Ro	-11.3541
addle	-11.3544
▁tenderly	-11.3545
▁Juli	-11.3548
▁coldly	-11.3549
▁deeply	-11.3554
▁pond	-11.3555
▁divines	-11.3559
▁showers	-11.3562
▁nobler	-11.3563
▁delivered	-11.3566
▁spiders	-11.3568
dding	-11.3569
▁sleepy	-11.3569
▁requires	-11.3569
▁events	-11.3574
▁frett	-11.3582
ouse	-11.3585
▁painful	-11.3592
▁Hoo	-11.3602
▁falsely	-11.3611
eve	-11.3615
▁thorns	-11.362
▁circumstances	-11.362
▁greetings	-11.362
Be	-11.3622
etween	-11.3625
▁agreed	-11.3626
▁returned	-11.3627
▁plent	-11.3633
▁embraced	-11.364
▁Sin	-11.3642
▁lame	-11.3642
▁hood	-11.3651
stern	-11.3655
▁fold	-11.3666
▁mocking	-11.3667
▁Tend	-11.3669
▁control	-11.3672
▁lightly	-11.3673
▁Hencefor	-11.3677
▁scale	-11.3679
acious	-11.3681
▁turned	-11.369
▁doves	-11.37
▁charit	-11.3708
▁rewards	-11.3728
▁allies	-11.3729
ain	-11.3746
▁paint	-11.3751
▁hall	-11.3754
▁mu	-11.3755
▁parl	-11.3756
▁fasting	-11.376
▁shower	-11.3761
pe	-11.3774
▁pounds	-11.3779
▁trembles	-11.3785
▁knowest	-11.3806
▁rascals	-11.383
▁profits	-11.3831
▁che	-11.3838
▁sayest	-11.3853
cu	-11.3856
▁miles	-11.3884
▁delights	-11.3884
▁degrees	-11.3884
▁bew	-11.3885
▁dwells	-11.3885
lack	-11.3896
▁wasp	-11.3912
forth	-11.3926
mall	-11.3927
▁minded	-11.3946
▁hug	-11.3961
▁lends	-11.3991
▁fighting	-11.4012
▁following	-11.4021
sby	-11.4029
lu	-11.4031
▁wax	-11.4036
smen	-11.4037
▁throats	-11.4045
▁conditions	-11.4045
▁receives	-11.405
▁demands	-11.4099
▁rocks	-11.4099
▁wi	-11.4103
▁Seek	-11.412
▁creatures	-11.4153
▁triumphs	-11.4154
▁noses	-11.4167
io	-11.4199
▁imp	-11.4207
▁doors	-11.4217
▁dared	-11.4218
▁Star	-11.4221
ome	-11.4233
▁issued	-11.4234
self	-11.4237
▁breathes	-11.4257
▁thousands	-11.4261
▁forces	-11.4272
nche	-11.4277
▁bringing	-11.4278
▁fift	-11.429
orrow	-11.4292
lain	-11.4299
▁braved	-11.4306
earn	-11.4319
sick	-11.432
▁tents	-11.4321
▁bows	-11.4367
▁feat	-11.4371
▁wh	-11.4373
▁Imp	-11.4376
▁gre	-11.4406
aid	-11.4428
▁dangers	-11.4431
▁scorns	-11.45
▁tu	-11.4517
▁nursed	-11.452
▁stirs	-11.4545
ky	-11.4557
▁prisoners	-11.4565
▁par	-11.4581
▁barr	-11.4591
▁sw	-11.4591
▁Fly	-11.4596
▁madest	-11.4607
▁loathe	-11.4685
▁comm	-11.469
bble	-11.4722
apt	-11.4746
phe	-11.4777
ag	-11.4787
▁ware	-11.4802
▁oil	-11.4815
▁sex	-11.4829
wn	-11.4831
▁bide	-11.4876
▁Mar	-11.4877
SS	-11.4934
hrew	-11.4941
▁rages	-11.4945
▁rap	-11.4972
▁chid	-11.5008
▁fl	-11.501
▁wonders	-11.501
board	-11.502
ox	-11.5026
▁hew	-11.5055
▁gr	-11.5057
vel	-11.5061
▁gu	-11.5067
ons	-11.508
ug	-11.5112
▁fits	-11.512
tra	-11.5121
low	-11.5127
▁roo	-11.5184
▁Sh	-11.5229
▁draws	-11.5243
▁Ex	-11.5243
▁Di	-11.5258
▁revers	-11.5277
tious	-11.531
▁Si	-11.5333
▁White	-11.5334
quicken	-11.5366
sisting	-11.537
▁fed	-11.5384
▁cr	-11.54
xton	-11.5406
▁counsels	-11.5413
ature	-11.5423
▁Whate	-11.5436
ff	-11.5448
▁fif	-11.546
allow	-11.5464
ners	-11.5484
▁tru	-11.555
ans	-11.5611
▁Del	-11.5667
▁cit	-11.5672
▁rot	-11.5695
ridge	-11.5698
ease	-11.5727
▁ref	-11.5732
nel	-11.5737
▁desir	-11.5743
▁unsta	-11.5744
ssing	-11.5749
▁singular	-11.5757
▁supple	-11.5806
▁howl	-11.5815
▁avouch	-11.582
▁urg	-11.5839
▁Thin	-11.5898
▁Win	-11.5899
▁h	-11.592
▁bran	-11.5944
experienced	-11.5947
azed	-11.6013
▁Beg	-11.603
pute	-11.6032
eak	-11.6038
▁bi	-11.6054
▁gl	-11.6076
▁counter	-11.6078
tro	-11.6087
▁rat	-11.6114
▁inter	-11.6116
▁stab	-11.613
aste	-11.6145
aching	-11.6166
dish	-11.6185
▁savour	-11.6187
▁arti	-11.6191
▁unc	-11.6225
▁rec	-11.6254
ttering	-11.6277
bot	-11.6278
▁sever	-11.6287
utch	-11.6296
▁crop	-11.6305
▁unrest	-11.6332
▁fret	-11.634
form	-11.6366
civi	-11.6368
oa	-11.6369
use	-11.6384
▁decree	-11.639
coff	-11.6398
dea	-11.6409
tree	-11.6418
rench	-11.6436
▁shin	-11.6439
▁chi	-11.6441
pper	-11.6465
▁argument	-11.6485
▁article	-11.6485
▁broil	-11.6485
▁threat	-11.6489
▁chain	-11.6493
▁glove	-11.6497
eyed	-11.6498
▁taunt	-11.6498
read	-11.65
▁attorney	-11.6509
▁clothe	-11.6511
▁robb	-11.6511
▁bone	-11.6521
tide	-11.6529
▁sal	-11.653
gether	-11.6532
▁appl	-11.6532
nointed	-11.6542
lic	-11.6543
serving	-11.6559
keep	-11.6561
▁belong	-11.6569
Heart	-11.6571
cquaint	-11.6571
range	-11.6572
▁dissembl	-11.6573
▁revive	-11.6576
▁argue	-11.6576
▁mate	-11.6576
▁raze	-11.6578
▁Sig	-11.658
doubted	-11.6581
advised	-11.6582
buil	-11.6583
siege	-11.6585
minded	-11.6585
pile	-11.6586
knit	-11.6586
avoided	-11.6587
gracious	-11.6588
certain	-11.6588
worn	-11.659
struction	-11.659
▁incense	-11.659
school	-11.6592
▁disperse	-11.6593
▁incline	-11.6593
brain	-11.6593
bred	-11.6593
cock	-11.6593
wench	-11.6593
word	-11.6594
favour	-11.6594
mouth	-11.6594
piece	-11.6594
quiet	-11.6594
fast	-11.6595
withal	-11.6595
weary	-11.6595
Tybalt	-11.6595
boy	-11.6595
Tell	-11.6595
child	-11.6595
Good	-11.6595
wife	-11.6595
join	-11.6596
book	-11.6596
bow	-11.6597
wept	-11.6598
doing	-11.6599
play	-11.6599
master	-11.6599
merit	-11.6602
▁fle	-11.6603
sati	-11.6604
rust	-11.6605
case	-11.6606
▁hop	-11.661
catch	-11.6611
▁unac	-11.6611
people	-11.6614
hill	-11.6614
this	-11.6615
thwith	-11.6616
▁gam	-11.6627
fell	-11.6635
▁Sicil	-11.6642
any	-11.6645
▁interrupt	-11.6645
▁bolt	-11.6646
▁disinherit	-11.6647
mur	-11.6648
▁transport	-11.6648
▁observe	-11.6649
▁everlasting	-11.6651
▁tape	-11.6652
▁Cro	-11.6653
new	-11.6654
aud	-11.6655
well	-11.6655
▁mum	-11.6657
▁mood	-11.6657
▁smok	-11.6659
pac	-11.6659
educ	-11.666
easy	-11.666
▁destin	-11.6661
bate	-11.6662
▁rod	-11.6664
▁crim	-11.6666
▁trim	-11.6666
magine	-11.6667
▁oppress	-11.6667
ption	-11.6667
▁fantastic	-11.6668
ouls	-11.6668
▁carve	-11.6668
LU	-11.6668
▁repa	-11.6668
▁author	-11.6669
hildren	-11.6669
▁pilgrim	-11.6669
ursuivant	-11.6669
ified	-11.6669
▁venge	-11.6669
erchance	-11.6669
▁patron	-11.6669
ilver	-11.6669
▁adulter	-11.6669
believ	-11.6669
dispos	-11.6669
▁fulfil	-11.6669
comfort	-11.6669
▁Suff	-11.6669
▁Music	-11.6669
reathe	-11.6669
▁steward	-11.6669
Fore	-11.6669
voke	-11.6669
▁Rich	-11.667
▁masqu	-11.667
▁kitchen	-11.667
▁lazy	-11.667
▁plume	-11.667
braid	-11.667
ershade	-11.667
junction	-11.667
pertinent	-11.667
wieldy	-11.667
▁Abbot	-11.667
▁Accursed	-11.667
▁Afric	-11.667
▁Amazon	-11.667
▁Blood	-11.667
▁Carlisle	-11.667
▁Chertsey	-11.667
▁Christendom	-11.667
▁Destroy	-11.667
▁Dighton	-11.667
▁Direct	-11.667
▁Divide	-11.667
▁Environ	-11.667
▁Except	-11.667
▁FRANCISC	-11.667
▁Friend	-11.667
▁Greek	-11.667
▁Guild	-11.667
▁Hallowmas	-11.667
▁Jerusalem	-11.667
▁Judas	-11.667
▁Leicester	-11.667
▁Ludlow	-11.667
▁Montgomery	-11.667
▁Philip	-11.667
▁Plashy	-11.667
▁Procure	-11.667
▁Ragozine	-11.667
▁Relent	-11.667
▁Repair	-11.667
▁Russia	-11.667
▁Sebastian	-11.667
▁Silence	-11.667
▁Slander	-11.667
▁Sleep	-11.667
▁Strive	-11.667
▁Tiber	-11.667
▁Tongue	-11.667
▁Tremble	-11.667
▁Ulysses	-11.667
▁Valeria	-11.667
▁abundance	-11.667
▁abundant	-11.667
▁acquit	-11.667
▁ambassador	-11.667
▁anguish	-11.667
▁aqua	-11.667
▁bargain	-11.667
▁basilisk	-11.667
▁bauble	-11.667
▁beauties	-11.667
▁blasphem	-11.667
▁burial	-11.667
▁cannibal	-11.667
▁carrion	-11.667
▁ceremony	-11.667
▁chaff	-11.667
▁chapel	-11.667
▁chronicle	-11.667
▁commodity	-11.667
▁complete	-11.667
▁complices	-11.667
▁compliment	-11.667
▁conduit	-11.667
▁conspiracy	-11.667
▁cradle	-11.667
▁criminal	-11.667
▁dastard	-11.667
▁detect	-11.667
▁devote	-11.667
▁discredit	-11.667
▁discreet	-11.667
▁discretion	-11.667
▁dishonest	-11.667
▁disloyal	-11.667
▁edict	-11.667
▁effeminate	-11.667
▁elements	-11.667
▁emulation	-11.667
▁engross	-11.667
▁enterprise	-11.667
▁establish	-11.667
▁evidence	-11.667
▁evident	-11.667
▁exhale	-11.667
▁fabric	-11.667
▁filthy	-11.667
▁foretell	-11.667
▁fortunate	-11.667
▁gnaw	-11.667
▁grove	-11.667
▁hilt	-11.667
▁homicide	-11.667
▁horrible	-11.667
▁infamy	-11.667
▁infancy	-11.667
▁infinite	-11.667
▁influence	-11.667
▁innocency	-11.667
▁intercept	-11.667
▁intercession	-11.667
▁inveterate	-11.667
▁kennel	-11.667
▁knack	-11.667
▁knell	-11.667
▁liberties	-11.667
▁marquess	-11.667
▁mathematics	-11.667
▁mistook	-11.667
▁morsel	-11.667
▁necessities	-11.667
▁obdurate	-11.667
▁oblivion	-11.667
▁obsequies	-11.667
▁obsequious	-11.667
▁ominous	-11.667
▁orchard	-11.667
▁ordinance	-11.667
▁peasant	-11.667
▁peradventure	-11.667
▁pirate	-11.667
▁prank	-11.667
▁prattl	-11.667
▁precise	-11.667
▁prodigy	-11.667
▁prophecies	-11.667
▁qualities	-11.667
▁receipt	-11.667
▁reckless	-11.667
▁recount	-11.667
▁refuge	-11.667
▁regreet	-11.667
▁rehearse	-11.667
▁remote	-11.667
▁requital	-11.667
▁resemblance	-11.667
▁resemble	-11.667
▁respite	-11.667
▁road	-11.667
▁rosemary	-11.667
▁sancti	-11.667
▁security	-11.667
▁separated	-11.667
▁signories	-11.667
▁smack	-11.667
▁smelt	-11.667
▁spectators	-11.667
▁steterat	-11.667
▁stratagems	-11.667
▁stubborn	-11.667
▁suborn	-11.667
▁suburbs	-11.667
▁sulphur	-11.667
▁surname	-11.667
▁survey	-11.667
▁thorough	-11.667
▁timorous	-11.667
▁traffic	-11.667
▁tumult	-11.667
▁unawares	-11.667
▁unreveren	-11.667
▁vanish	-11.667
▁vanquish	-11.667
▁vigour	-11.667
▁villanous	-11.667
▁viper	-11.667
▁visor	-11.667
▁whereupon	-11.667
▁yesternight	-11.667
lavish	-11.667
uous	-11.667
▁April	-11.667
▁Juno	-11.667
▁Nathaniel	-11.667
▁Provoke	-11.667
▁Stafford	-11.667
▁Witness	-11.667
▁Yonder	-11.667
▁ague	-11.667
▁annoy	-11.667
▁attentive	-11.667
▁countermand	-11.667
▁encompass	-11.667
▁ibat	-11.667
▁justify	-11.667
▁novice	-11.667
▁parasite	-11.667
▁prodigal	-11.667
▁proverb	-11.667
▁senis	-11.667
▁Abhorson	-11.667
▁Gramerc	-11.667
▁Latin	-11.667
▁bustle	-11.667
▁convert	-11.667
▁covet	-11.667
▁election	-11.667
▁enroll	-11.667
▁giant	-11.667
▁gilt	-11.667
▁hint	-11.667
▁litter	-11.667
▁nuns	-11.667
▁relation	-11.667
▁sparing	-11.667
▁tatter	-11.667
▁verge	-11.667
▁Blush	-11.667
▁Half	-11.667
▁endeavour	-11.667
▁expostu	-11.667
▁gentry	-11.667
▁keen	-11.667
▁map	-11.667
▁ocean	-11.667
▁scouts	-11.667
▁somebody	-11.667
corpora	-11.667
regia	-11.667
▁Alone	-11.667
▁Church	-11.667
▁Fool	-11.667
▁Lift	-11.667
▁Merely	-11.667
▁behove	-11.667
▁cedar	-11.667
▁hawk	-11.667
▁imposition	-11.667
▁presumpt	-11.667
▁stagger	-11.667
▁uneven	-11.667
▁welkin	-11.667
▁agony	-11.667
▁coffers	-11.667
▁ribbon	-11.667
▁rigour	-11.667
▁vouchsafe	-11.667
▁profound	-11.667
▁treaty	-11.667
▁unluckily	-11.667
▁stint	-11.667
refix	-11.667
▁Meaning	-11.667
▁Mount	-11.667
▁cavil	-11.667
▁distill	-11.667
▁threshold	-11.667
▁trenches	-11.667
▁authorities	-11.667
▁residence	-11.667
▁Pilate	-11.667
▁cuff	-11.667
▁garlic	-11.667
▁slumber	-11.667
tify	-11.667
▁auster	-11.667
▁Brandon	-11.667
▁doleful	-11.667
▁verity	-11.667
▁Forget	-11.667
▁Glad	-11.667
▁Mercury	-11.667
▁battery	-11.667
▁distemper	-11.667
▁Cape	-11.667
▁Stop	-11.667
▁manacles	-11.667
▁medlar	-11.667
▁ordain	-11.667
▁spell	-11.667
▁conspire	-11.667
▁forlorn	-11.667
▁kernel	-11.667
▁penury	-11.667
▁malignant	-11.667
▁preposterous	-11.667
▁promotion	-11.667
▁streak	-11.667
▁invite	-11.667
▁calf	-11.667
▁Cheer	-11.667
▁Pluck	-11.667
▁beautiful	-11.667
▁violet	-11.667
▁ancestors	-11.667
▁violate	-11.667
▁diligence	-11.667
▁eloquence	-11.667
▁Pale	-11.667
▁trudge	-11.667
▁discipline	-11.667
▁fickle	-11.667
▁standard	-11.667
▁studied	-11.667
▁preparation	-11.667
▁propose	-11.667
▁abode	-11.667
▁produce	-11.667
▁swine	-11.667
▁momentary	-11.667
▁Base	-11.667
▁Dream	-11.667
▁lease	-11.667
▁repaid	-11.667
▁spotted	-11.667
▁submission	-11.667
▁tumbling	-11.667
▁stew	-11.667
▁stirrup	-11.667
▁credul	-11.667
▁mutinies	-11.667
▁miracle	-11.667
▁scruple	-11.667
ville	-11.667
▁fliers	-11.667
▁beginning	-11.667
ragon	-11.667
▁Helen	-11.667
▁pump	-11.667
▁Assist	-11.667
▁subscribe	-11.667
▁creation	-11.667
▁fornication	-11.667
▁overheard	-11.667
▁Westm	-11.667
▁adulteress	-11.667
▁ingrateful	-11.667
▁Stir	-11.667
▁parle	-11.667
▁rabble	-11.667
▁daring	-11.667
▁ginger	-11.667
▁wagg	-11.667
▁stray	-11.667
▁circum	-11.667
▁enjoin	-11.667
▁incapable	-11.667
▁joll	-11.667
▁club	-11.667
▁forefather	-11.667
▁wade	-11.667
cible	-11.6671
▁slug	-11.6671
▁slide	-11.6671
▁bonnet	-11.6671
▁bragg	-11.6671
▁complot	-11.6671
▁generation	-11.6671
▁studies	-11.6671
▁fowl	-11.6671
▁Step	-11.6671
▁glance	-11.6671
▁advancement	-11.6671
▁glister	-11.6671
▁maim	-11.6671
▁speedily	-11.6671
▁severity	-11.6671
▁hostess	-11.6671
▁fountain	-11.6671
▁inheritance	-11.6671
▁prescri	-11.6671
▁mute	-11.6671
▁happen	-11.6671
ternal	-11.6671
▁reek	-11.6671
▁Adam	-11.6671
▁perchance	-11.6671
▁instance	-11.6671
▁space	-11.6671
▁Condition	-11.6671
▁shock	-11.6671
▁unprovided	-11.6671
▁unthrift	-11.6671
▁Hard	-11.6671
▁flout	-11.6671
▁Deep	-11.6671
▁Nine	-11.6671
▁Whip	-11.6671
▁embracements	-11.6671
▁Quick	-11.6671
▁appointment	-11.6671
▁hush	-11.6671
▁Fell	-11.6672
▁fantastical	-11.6672
▁parch	-11.6672
ause	-11.6672
▁ungentle	-11.6672
▁fester	-11.6672
▁agreement	-11.6672
▁wrap	-11.6672
erwhelm	-11.6672
▁Castle	-11.6672
▁misuse	-11.6672
▁mow	-11.6672
▁bats	-11.6672
▁flag	-11.6672
▁argosy	-11.6673
▁chivalry	-11.6673
▁deformity	-11.6673
▁butterfly	-11.6673
▁infirmity	-11.6673
▁brine	-11.6673
▁gear	-11.6673
▁punishment	-11.6673
▁vexation	-11.6673
▁Little	-11.6673
▁assembly	-11.6673
▁mightily	-11.6673
▁Meet	-11.6673
▁distinctly	-11.6673
▁Night	-11.6673
▁temperance	-11.6673
▁Ross	-11.6674
▁crimes	-11.6674
▁acquaintance	-11.6674
▁hoot	-11.6674
▁impre	-11.6674
▁alteration	-11.6674
▁heaviness	-11.6674
▁unkind	-11.6674
▁trimm	-11.6674
▁boat	-11.6674
▁bondage	-11.6674
▁immediately	-11.6674
▁laughter	-11.6674
▁spru	-11.6674
▁jointure	-11.6674
▁Seal	-11.6674
▁interest	-11.6675
▁impudent	-11.6675
▁busi	-11.6675
▁nation	-11.6675
▁Iron	-11.6675
▁potion	-11.6675
▁conveyance	-11.6675
▁hatches	-11.6675
▁dimm	-11.6675
▁adorn	-11.6675
▁cake	-11.6675
▁counterpoise	-11.6675
▁playfellow	-11.6676
▁stake	-11.6676
▁insinuate	-11.6676
▁worthiest	-11.6676
▁size	-11.6676
▁stole	-11.6676
▁twin	-11.6676
▁shrug	-11.6676
▁wrongfully	-11.6676
▁bonn	-11.6676
▁capable	-11.6677
erthrow	-11.6677
leather	-11.6677
▁dive	-11.6677
▁bale	-11.6677
alian	-11.6677
▁stage	-11.6678
▁fellowship	-11.6678
aughter	-11.6678
▁qualify	-11.6678
▁Dick	-11.6678
▁grumbling	-11.6678
▁knavery	-11.6678
▁portion	-11.6679
▁reside	-11.6679
▁Yourself	-11.6679
▁partial	-11.6679
▁Mab	-11.6679
▁Hour	-11.668
▁Happily	-11.668
▁cheerful	-11.668
▁daylight	-11.668
▁Bore	-11.668
▁womanish	-11.6681
▁preferment	-11.6681
▁boil	-11.6681
▁leanness	-11.6682
righteous	-11.6682
▁endow	-11.6682
▁offenders	-11.6682
▁buil	-11.6682
▁Flow	-11.6682
▁bug	-11.6683
▁Less	-11.6683
▁sober	-11.6684
▁commandment	-11.6684
▁Englishman	-11.6684
▁favourable	-11.6684
▁audi	-11.6684
▁pile	-11.6684
▁corners	-11.6684
lind	-11.6684
▁dishes	-11.6685
▁gratis	-11.6685
ostess	-11.6685
▁Plain	-11.6685
▁handsome	-11.6685
▁mankind	-11.6686
rous	-11.6686
▁Doubl	-11.6686
renz	-11.6686
▁reel	-11.6687
▁travell	-11.6687
▁Die	-11.6687
▁changeling	-11.6687
▁approaches	-11.6688
▁driven	-11.6688
▁grin	-11.6688
▁flinty	-11.6688
▁thirsty	-11.6688
rity	-11.6688
culate	-11.6689
▁yew	-11.6689
▁deceased	-11.6689
▁displeased	-11.6689
▁obscured	-11.6689
▁perused	-11.6689
▁wretchedness	-11.6689
▁coin	-11.6689
▁clip	-11.6689
▁relent	-11.6689
▁finish	-11.6689
▁quality	-11.6689
▁dainty	-11.6689
▁fathom	-11.6689
▁paradise	-11.6689
▁pregnant	-11.6689
▁dolour	-11.6689
▁thrift	-11.6689
▁breech	-11.669
▁gotten	-11.669
▁meditation	-11.669
▁partake	-11.669
▁riddle	-11.669
▁observ	-11.669
▁interpret	-11.669
▁grudge	-11.669
dyed	-11.669
▁province	-11.669
▁hook	-11.6691
▁gripe	-11.6691
elected	-11.6691
▁whipped	-11.6691
▁fifty	-11.6692
▁disinherited	-11.6692
▁plotted	-11.6692
▁listen	-11.6693
▁solace	-11.6694
▁goad	-11.6694
▁vest	-11.6694
▁derived	-11.6695
▁attach	-11.6695
▁Tear	-11.6696
▁Abate	-11.6697
▁bag	-11.6697
▁bier	-11.6698
▁wooers	-11.6699
▁humane	-11.67
lore	-11.6701
▁reasonable	-11.6701
▁accompan	-11.6701
▁excel	-11.6702
▁pun	-11.6702
eia	-11.6703
hallow	-11.6703
▁wealthy	-11.6704
bridge	-11.6705
▁Drop	-11.6705
▁malicious	-11.6705
ARL	-11.6706
usan	-11.6706
▁sty	-11.6706
▁levied	-11.6707
▁manifested	-11.6709
scent	-11.671
▁clouded	-11.671
▁handle	-11.6711
▁flatterer	-11.6711
▁Turks	-11.6711
▁ducats	-11.6711
▁exclaims	-11.6711
▁orphans	-11.6711
▁pikes	-11.6711
▁conserves	-11.6711
▁minstrels	-11.6711
▁sprites	-11.6711
▁countryman	-11.6712
▁lecher	-11.6713
▁amended	-11.6713
▁directly	-11.6714
▁fac	-11.6714
▁pry	-11.6714
thwart	-11.6714
▁ability	-11.6715
▁pith	-11.6716
▁gorge	-11.6716
▁soften	-11.6717
▁speeches	-11.6717
▁South	-11.6718
▁cheat	-11.6718
▁detested	-11.6718
▁resisted	-11.6718
▁Bold	-11.6719
▁Courage	-11.672
▁companions	-11.672
▁arrive	-11.6721
▁chafed	-11.6722
▁surprised	-11.6722
▁disposed	-11.6722
▁Charge	-11.6724
▁angle	-11.6725
hful	-11.6725
▁bastardy	-11.6726
▁melted	-11.6727
▁painting	-11.6728
▁sew	-11.6729
▁traveller	-11.6729
▁bewitch	-11.6731
▁interr	-11.6731
reserved	-11.6732
▁stall	-11.6734
▁Bo	-11.6734
roop	-11.6735
▁discovery	-11.6736
▁cony	-11.6736
▁proceeding	-11.6737
▁Hap	-11.6738
▁unlike	-11.6738
▁ascend	-11.6738
▁warp	-11.6738
▁Far	-11.6739
▁Wear	-11.6742
▁affliction	-11.6744
▁rarest	-11.6745
▁stabbed	-11.6745
▁unity	-11.6746
▁stirr	-11.6747
▁fourth	-11.6748
vi	-11.6748
▁denies	-11.6749
▁awaken	-11.6749
▁digg	-11.6751
▁doubtless	-11.6751
▁nearest	-11.6752
talk	-11.6755
hic	-11.6756
▁atone	-11.6757
kind	-11.6757
▁ram	-11.6757
pate	-11.6758
▁piled	-11.6758
igh	-11.6758
▁beggary	-11.6759
▁range	-11.676
pread	-11.676
▁Spur	-11.676
▁foundation	-11.6762
▁apple	-11.6762
▁passes	-11.6765
cover	-11.6765
▁chatte	-11.6767
▁bate	-11.6768
▁privately	-11.6768
▁merc	-11.6771
▁mingl	-11.6771
▁wishes	-11.6771
▁th	-11.6775
landers	-11.6776
crown	-11.6777
pish	-11.6777
▁pipe	-11.6778
une	-11.6779
monger	-11.6779
▁considering	-11.678
▁added	-11.6782
▁highest	-11.6783
▁sheets	-11.6783
▁moveables	-11.6783
▁charters	-11.6783
▁gossips	-11.6783
▁posterns	-11.6783
▁curbs	-11.6783
▁beggarly	-11.6783
▁aches	-11.6784
▁hounds	-11.6784
▁sailors	-11.6784
▁aff	-11.6785
▁Bret	-11.6785
there	-11.6786
scaped	-11.6787
▁min	-11.6789
▁afterwards	-11.6789
▁subdued	-11.679
▁robber	-11.6792
▁shameless	-11.6794
jo	-11.6794
▁complaining	-11.6795
▁wildly	-11.6796
▁Blis	-11.6799
▁fairies	-11.68
▁purit	-11.68
▁ox	-11.6804
▁sear	-11.6806
▁swiftly	-11.6809
hat	-11.6818
vely	-11.682
ical	-11.682
▁opposed	-11.6822
▁male	-11.6822
▁sickly	-11.6823
▁Age	-11.6823
▁tongueless	-11.6823
▁hoard	-11.6824
▁dwelling	-11.6827
▁pill	-11.6827
▁beguiled	-11.6829
ram	-11.683
▁greed	-11.6834
▁mid	-11.6835
▁patiently	-11.6836
▁pals	-11.6839
▁hardy	-11.6842
hip	-11.6846
▁bestride	-11.6849
▁leader	-11.6851
lots	-11.6852
▁waiting	-11.6855
▁tellus	-11.6855
▁usage	-11.6856
▁briefly	-11.6857
▁softly	-11.6857
▁attorneys	-11.6858
▁arguments	-11.6858
▁articles	-11.6858
▁broils	-11.6858
▁purged	-11.6859
▁reconciled	-11.6859
▁stumbled	-11.6859
▁confined	-11.6859
▁decrees	-11.686
▁begging	-11.6861
▁Sea	-11.6862
ext	-11.6863
▁persuaded	-11.6864
fence	-11.6869
▁delivery	-11.6869
▁laboured	-11.687
▁apothecary	-11.6874
▁justly	-11.6878
beseem	-11.6878
▁Showing	-11.6884
▁Cat	-11.6885
▁Withal	-11.6886
▁owl	-11.6888
▁fearless	-11.6891
stol	-11.6894
▁hostil	-11.6911
▁orderly	-11.6912
▁dedicate	-11.6913
▁stealing	-11.6914
▁presage	-11.6916
drench	-11.6918
▁peri	-11.692
ney	-11.6921
▁poorest	-11.6922
▁mourner	-11.6922
hast	-11.6923
▁drowning	-11.6929
▁shipp	-11.693
▁moans	-11.6933
▁shouts	-11.6933
▁liars	-11.6933
▁aery	-11.6936
▁amity	-11.6938
door	-11.694
makers	-11.6943
trick	-11.6948
▁sweeten	-11.695
▁consented	-11.6951
▁wheels	-11.6954
▁entreated	-11.696
▁eating	-11.6961
▁censured	-11.6964
▁web	-11.6964
▁Bri	-11.6982
▁belongs	-11.6985
▁doit	-11.6986
▁whipp	-11.6992
▁throughly	-11.6996
ury	-11.6997
▁pines	-11.7002
▁strangely	-11.7003
▁bills	-11.7006
▁hills	-11.7008
▁successful	-11.7008
▁lamentations	-11.701
▁toys	-11.7012
mond	-11.7019
rought	-11.7019
▁pal	-11.7022
▁feasting	-11.7024
▁acting	-11.7025
▁praised	-11.7039
▁gar	-11.7045
hos	-11.7053
witch	-11.7059
▁helms	-11.7085
▁coats	-11.7086
▁floods	-11.7086
▁accusations	-11.7086
▁complexions	-11.7086
▁fiends	-11.7086
▁complaints	-11.7087
▁remembered	-11.7088
▁nearer	-11.7092
▁cy	-11.7098
▁goodman	-11.7102
▁sly	-11.7107
▁Vi	-11.7115
▁continued	-11.7119
ga	-11.7131
▁wondering	-11.7133
erman	-11.714
My	-11.7152
▁attire	-11.7155
▁wary	-11.7155
▁barb	-11.7159
▁rates	-11.7159
▁charms	-11.7163
▁jewels	-11.7164
▁abuses	-11.7167
iff	-11.7178
▁entering	-11.7185
▁Fre	-11.7189
savoury	-11.7202
▁expir	-11.7203
▁fees	-11.7206
▁cu	-11.721
▁winding	-11.721
arn	-11.7222
▁diseases	-11.7241
▁blocks	-11.7242
▁instructions	-11.7242
pose	-11.7244
▁petitions	-11.7246
▁circle	-11.7253
iced	-11.7255
▁doubted	-11.7276
▁rightly	-11.7287
ept	-11.7294
▁nymph	-11.7297
elect	-11.7303
deliver	-11.7304
▁pursues	-11.7308
▁seeking	-11.731
▁wasted	-11.7319
▁wearing	-11.7319
▁fashions	-11.732
▁fooling	-11.732
▁ballads	-11.732
▁sues	-11.7325
▁chin	-11.7325
ort	-11.7341
▁mul	-11.7343
▁footing	-11.7358
sses	-11.7384
▁tides	-11.7398
▁purses	-11.7399
▁deserts	-11.7399
▁sails	-11.7399
▁elders	-11.74
▁AE	-11.7429
▁kissing	-11.7437
▁experience	-11.7448
▁Bless	-11.7458
▁worthi	-11.746
▁rogues	-11.7479
▁torments	-11.7479
tic	-11.7503
ssel	-11.7529
▁goest	-11.7536
▁turning	-11.7545
▁ac	-11.7546
ION	-11.7548
▁Free	-11.7555
▁fails	-11.7559
▁hearth	-11.757
▁swearing	-11.7576
▁proofs	-11.764
▁innocents	-11.764
▁prevails	-11.764
▁embraces	-11.7641
▁intends	-11.7642
▁Fate	-11.7644
▁pant	-11.7647
▁wishing	-11.766
itting	-11.7688
▁interi	-11.769
▁heal	-11.7734
cro	-11.776
▁crowned	-11.7766
Whoop	-11.777
roth	-11.7792
▁beholder	-11.7824
▁Wa	-11.7838
scarr	-11.7933
▁cla	-11.7951
tart	-11.8005
lies	-11.8011
▁Qui	-11.8045
edit	-11.8068
▁Fast	-11.8141
mine	-11.8143
▁bl	-11.8172
lowly	-11.8191
▁nuts	-11.8309
og	-11.833
dopted	-11.8392
fused	-11.8406
▁shameful	-11.8457
ains	-11.8464
oes	-11.847
▁appea	-11.8506
▁personal	-11.8524
▁surge	-11.8525
avel	-11.8529
▁Wi	-11.8531
refer	-11.8533
morous	-11.8548
▁feign	-11.8606
eat	-11.8643
porter	-11.8643
▁com	-11.8646
▁rapt	-11.871
▁suppl	-11.8735
▁Hol	-11.8744
▁unstai	-11.8753
suspected	-11.8759
quis	-11.8771
▁dri	-11.8842
▁enfranchise	-11.8917
mperor	-11.8978
▁pl	-11.8991
▁Bu	-11.9047
amorous	-11.9093
▁soothe	-11.9115
say	-11.9157
▁victori	-11.9264
▁verie	-11.9267
nce	-11.9319
adders	-11.9353
lo	-11.9389
aster	-11.9441
wonted	-11.9518
shell	-11.952
staring	-11.9587
▁cope	-11.9639
winge	-11.9648
Fine	-11.9789
ily	-11.979
corner	-11.9833
hing	-11.9915
▁tun	-11.996
▁bruis	-11.9962
valued	-12.0019
lmost	-12.0094
ving	-12.0096
plant	-12.0116
once	-12.0162
would	-12.0181
ulous	-12.0182
▁imput	-12.0182
spective	-12.0209
apes	-12.0217
▁waxe	-12.0238
▁ample	-12.0304
bel	-12.0338
▁domin	-12.0349
▁preservati	-12.0423
ended	-12.0435
▁pursu	-12.0441
▁RO	-12.0453
rns	-12.0465
ab	-12.0469
tract	-12.0474
ries	-12.049
▁dul	-12.0531
▁Disp	-12.0542
eliver	-12.0609
▁str	-12.0615
▁Scar	-12.0639
Citizens	-12.0685
▁curt	-12.0697
▁professe	-12.0748
nger	-12.0825
▁Infus	-12.0828
▁Comp	-12.085
lous	-12.0918
arts	-12.0923
ontroll	-12.0947
keeping	-12.0965
nker	-12.0967
▁Mi	-12.0973
▁Blow	-12.1002
alm	-12.1011
claim	-12.1033
mitted	-12.1045
vied	-12.1066
nch	-12.1086
▁Ch	-12.1089
tuned	-12.1137
ina	-12.1154
charitabl	-12.116
▁deceiv	-12.1168
▁Mist	-12.1177
hen	-12.1191
left	-12.1203
reful	-12.1211
▁unp	-12.1248
fulness	-12.1249
other	-12.125
erween	-12.129
▁brav	-12.1328
▁ev	-12.1338
▁scal	-12.1348
ative	-12.1368
west	-12.1399
▁u	-12.1406
eep	-12.1417
alk	-12.1424
lend	-12.1426
▁furr	-12.1432
Lo	-12.1435
part	-12.1445
▁Trans	-12.1447
▁striv	-12.1447
bit	-12.1459
ement	-12.1463
▁Holla	-12.1475
▁gossip	-12.1486
▁charter	-12.1487
ried	-12.1488
fall	-12.1488
utter	-12.1488
▁hound	-12.1489
▁ache	-12.149
▁curb	-12.1495
▁skull	-12.1495
▁postern	-12.1495
riving	-12.1495
▁rite	-12.1496
unning	-12.1498
▁ornament	-12.1499
while	-12.15
wearie	-12.15
▁band	-12.15
▁million	-12.1501
▁shoe	-12.1504
udge	-12.1508
▁sailor	-12.1508
▁vein	-12.1508
▁affair	-12.151
▁citizen	-12.1512
▁wive	-12.1519
▁seque	-12.1521
cho	-12.1526
▁convers	-12.1526
bid	-12.153
changing	-12.1533
otless	-12.1535
▁spice	-12.1536
▁dun	-12.1537
▁Conceiv	-12.1537
▁ston	-12.1538
give	-12.1541
▁robe	-12.1542
swear	-12.1543
▁travel	-12.1546
▁cape	-12.1547
▁garment	-12.1547
xamine	-12.1548
▁inhabit	-12.1548
▁moveable	-12.1556
▁Ru	-12.1556
lace	-12.1558
ffliction	-12.1559
scend	-12.1561
tru	-12.1562
▁afterward	-12.1563
angle	-12.1564
larum	-12.1564
spect	-12.1566
thwa	-12.1571
ccept	-12.1572
cloth	-12.1573
parallel	-12.1573
sheet	-12.1576
▁Resolve	-12.1577
▁dissolve	-12.1577
▁perfume	-12.1577
plight	-12.1577
▁combine	-12.1578
▁lime	-12.1578
port	-12.1579
▁bestrid	-12.158
ample	-12.158
wise	-12.1581
Charge	-12.1582
Courage	-12.1582
tainted	-12.1582
pipe	-12.1582
crow	-12.1584
worth	-12.1584
▁Infer	-12.1585
tiful	-12.1585
stall	-12.1585
▁chafe	-12.1585
▁surprise	-12.1585
how	-12.1586
Verily	-12.1586
gratitude	-12.1586
yard	-12.1587
▁dispose	-12.1587
▁captiv	-12.1587
▁Unhapp	-12.1588
pitied	-12.1588
bishop	-12.1588
▁restore	-12.1589
ripe	-12.1589
rising	-12.1589
roses	-12.159
goose	-12.159
Remember	-12.1591
deaf	-12.1591
forced	-12.1591
moan	-12.1591
fashion	-12.1592
flow	-12.1592
wood	-12.1593
Thanks	-12.1593
music	-12.1593
east	-12.1593
spoken	-12.1594
creature	-12.1594
colour	-12.1594
True	-12.1594
wall	-12.1594
content	-12.1594
fond	-12.1594
hide	-12.1594
honour	-12.1595
course	-12.1595
match	-12.1595
Stay	-12.1595
itable	-12.1595
Coriolanus	-12.1595
spring	-12.1595
thought	-12.1595
Thus	-12.1595
grace	-12.1595
Yea	-12.1595
widow	-12.1595
twenty	-12.1595
loving	-12.1595
vex	-12.1595
ground	-12.1595
Alas	-12.1596
proud	-12.1596
tongue	-12.1596
why	-12.1596
coming	-12.1596
Romeo	-12.1596
away	-12.1596
sweet	-12.1596
Thou	-12.1596
▁sheath	-12.1596
When	-12.1596
three	-12.1596
you	-12.1596
married	-12.1597
perform	-12.1597
harm	-12.1597
burn	-12.1597
black	-12.1597
Hold	-12.1599
deck	-12.1599
pray	-12.1599
thou	-12.1599
meant	-12.1601
How	-12.1602
▁admire	-12.1602
▁ensu	-12.1603
beat	-12.1603
▁wai	-12.1604
Come	-12.1605
mark	-12.1605
▁baw	-12.1606
Have	-12.1608
havior	-12.1609
No	-12.1609
cold	-12.1611
kill	-12.1615
parted	-12.1616
uc	-12.1619
▁issu	-12.1624
though	-12.1625
▁quart	-12.1629
falling	-12.1629
▁wheresoe	-12.1632
▁strang	-12.1632
roof	-12.1632
ndam	-12.1635
▁reckon	-12.1635
▁continu	-12.1638
hi	-12.1638
▁ski	-12.164
appare	-12.1641
▁bon	-12.1641
▁depos	-12.1641
▁devou	-12.1643
peer	-12.1645
▁negligen	-12.1645
▁matt	-12.1645
▁moth	-12.1648
▁clog	-12.1648
▁simpl	-12.1648
▁suggest	-12.1648
▁numb	-12.1648
▁vo	-12.1649
▁hind	-12.165
▁indirect	-12.1651
rief	-12.1653
▁merri	-12.1653
▁bab	-12.1653
▁Happi	-12.1654
▁holida	-12.1655
acle	-12.1655
▁religio	-12.1656
titude	-12.1656
▁stud	-12.1656
knock	-12.1656
elting	-12.1657
▁qualif	-12.1658
▁extremit	-12.1658
hange	-12.1658
▁forswor	-12.1659
ripp	-12.1659
latter	-12.1659
▁insinuat	-12.166
rugs	-12.166
▁Suppos	-12.166
▁nimbl	-12.166
▁choos	-12.1661
▁deput	-12.1661
oison	-12.1661
▁protect	-12.1661
▁unfe	-12.1661
▁flo	-12.1662
pinion	-12.1662
reak	-12.1663
avin	-12.1664
uit	-12.1665
▁scept	-12.1665
▁dec	-12.1666
butt	-12.1666
HER	-12.1666
▁trifl	-12.1666
njuri	-12.1666
ication	-12.1666
eceive	-12.1667
nquire	-12.1667
▁stag	-12.1667
curvy	-12.1667
lvish	-12.1667
▁fount	-12.1667
tuff	-12.1668
gard	-12.1668
▁emb	-12.1668
venged	-12.1668
clamations	-12.1668
▁batt	-12.1668
abour	-12.1668
zard	-12.1668
onvenient	-12.1668
hieves	-12.1668
njoy	-12.1668
welve	-12.1668
ummon	-12.1668
▁superflu	-12.1668
▁spot	-12.1668
▁disobedien	-12.1668
ounsel	-12.1669
enedic	-12.1669
divin	-12.1669
▁chastise	-12.1669
constru	-12.1669
ronounce	-12.1669
rofess	-12.1669
rived	-12.1669
▁moment	-12.1669
▁publi	-12.1669
▁volu	-12.1669
gger	-12.1669
▁mista	-12.1669
▁unluck	-12.167
efactors	-12.167
▁overta	-12.167
▁patri	-12.167
▁Profane	-12.167
▁Publi	-12.167
▁Safe	-12.167
▁contemplat	-12.167
▁magn	-12.167
▁perdona	-12.167
intelligen	-12.167
▁Drum	-12.167
▁Ensu	-12.167
▁Exceed	-12.167
▁Kiss	-12.167
▁Scratch	-12.167
▁Wrath	-12.167
▁digress	-12.167
▁epit	-12.167
▁gib	-12.167
▁gnarl	-12.167
▁jaunt	-12.167
▁multiply	-12.167
▁penetra	-12.167
▁penny	-12.167
▁prorogue	-12.167
▁purgat	-12.167
▁quiver	-12.167
▁reflect	-12.167
▁snarl	-12.167
▁snatch	-12.167
▁sustain	-12.167
▁thrill	-12.167
absolve	-12.167
agabond	-12.167
cides	-12.167
continent	-12.167
crivener	-12.167
dversity	-12.167
efinitive	-12.167
ercharged	-12.167
erpast	-12.167
leaf	-12.167
logue	-12.167
lubbering	-12.167
ntipodes	-12.167
obstinate	-12.167
onjectur	-12.167
parable	-12.167
queath	-12.167
ssociate	-12.167
stitche	-12.167
violable	-12.167
visible	-12.167
▁Abraham	-12.167
▁Accord	-12.167
▁Account	-12.167
▁Affright	-12.167
▁Alexander	-12.167
▁Argier	-12.167
▁Autolycus	-12.167
▁Barbary	-12.167
▁Beggar	-12.167
▁Certainly	-12.167
▁Commun	-12.167
▁December	-12.167
▁Deucalion	-12.167
▁Divine	-12.167
▁Dull	-12.167
▁Erroneous	-12.167
▁Ethiop	-12.167
▁Ferdinand	-12.167
▁Flavius	-12.167
▁Florence	-12.167
▁Florenti	-12.167
▁Gonzalo	-12.167
▁Hacket	-12.167
▁Hannibal	-12.167
▁Insult	-12.167
▁Libya	-12.167
▁Lucy	-12.167
▁MEASURE	-12.167
▁Mamillius	-12.167
▁Miranda	-12.167
▁Mopsa	-12.167
▁Neglect	-12.167
▁Nicanor	-12.167
▁Northampton	-12.167
▁Olymp	-12.167
▁Ourselves	-12.167
▁Potpan	-12.167
▁Praise	-12.167
▁Pretty	-12.167
▁Pursue	-12.167
▁Reason	-12.167
▁Remain	-12.167
▁Subject	-12.167
▁Suppl	-12.167
▁Suspect	-12.167
▁Traitor	-12.167
▁Travel	-12.167
▁Usurp	-12.167
▁Varrius	-12.167
▁Vincetino	-12.167
▁Welshman	-12.167
▁Westmoreland	-12.167
▁Wondrous	-12.167
▁Worcester	-12.167
▁abject	-12.167
▁abominable	-12.167
▁abortive	-12.167
▁abstinence	-12.167
▁addition	-12.167
▁admonition	-12.167
▁adversary	-12.167
▁affianced	-12.167
▁apology	-12.167
▁arguing	-12.167
▁arithmetic	-12.167
▁arrogance	-12.167
▁banns	-12.167
▁bisson	-12.167
▁boatswain	-12.167
▁brooch	-12.167
▁brutish	-12.167
▁bucket	-12.167
▁cambric	-12.167
▁camp	-12.167
▁cardinal	-12.167
▁carpet	-12.167
▁carriage	-12.167
▁casque	-12.167
▁caterpillars	-12.167
▁chaos	-12.167
▁churl	-12.167
▁cipher	-12.167
▁clerk	-12.167
▁clime	-12.167
▁cockatrice	-12.167
▁confiscat	-12.167
▁conflict	-12.167
▁conjuration	-12.167
▁contagion	-12.167
▁contemn	-12.167
▁continency	-12.167
▁cormorant	-12.167
▁corpse	-12.167
▁cottage	-12.167
▁covenant	-12.167
▁coxcomb	-12.167
▁credent	-12.167
▁crotchets	-12.167
▁curfew	-12.167
▁daffodils	-12.167
▁deflower	-12.167
▁deliberate	-12.167
▁demesnes	-12.167
▁descant	-12.167
▁desperation	-12.167
▁different	-12.167
▁dignifie	-12.167
▁disfigure	-12.167
▁dispense	-12.167
▁distaff	-12.167
▁doctrine	-12.167
▁drove	-12.167
▁drudge	-12.167
▁duellist	-12.167
▁embassies	-12.167
▁encamp	-12.167
▁environ	-12.167
▁estimate	-12.167
▁eternity	-12.167
▁excellence	-12.167
▁extempore	-12.167
▁eyebrows	-12.167
▁falchion	-12.167
▁falter	-12.167
▁fleece	-12.167
▁forewarn	-12.167
▁frequent	-12.167
▁frivolous	-12.167
▁funeral	-12.167
▁gambol	-12.167
▁geese	-12.167
▁gilded	-12.167
▁grateful	-12.167
▁gratulate	-12.167
▁gravity	-12.167
▁gyves	-12.167
▁habiliments	-12.167
▁hammer	-12.167
▁handkerchief	-12.167
▁hilding	-12.167
▁impossibilit	-12.167
▁indictment	-12.167
▁indignation	-12.167
▁induction	-12.167
▁industr	-12.167
▁inexorable	-12.167
▁infidels	-12.167
▁ingenious	-12.167
▁inhuman	-12.167
▁insensible	-12.167
▁insurrection	-12.167
▁languish	-12.167
▁lethargy	-12.167
▁library	-12.167
▁licence	-12.167
▁malady	-12.167
▁malapert	-12.167
▁mamm	-12.167
▁massacre	-12.167
▁matron	-12.167
▁merciless	-12.167
▁misadventure	-12.167
▁misdeed	-12.167
▁monastery	-12.167
▁motive	-12.167
▁mutton	-12.167
▁navy	-12.167
▁necessaries	-12.167
▁obstacles	-12.167
▁orisons	-12.167
▁ostentation	-12.167
▁outstretch	-12.167
▁packthread	-12.167
▁partisans	-12.167
▁pathway	-12.167
▁pedigree	-12.167
▁perdition	-12.167
▁petticoat	-12.167
▁pheasant	-12.167
▁phrase	-12.167
▁placket	-12.167
▁potency	-12.167
▁precipitation	-12.167
▁predecessors	-12.167
▁predominant	-12.167
▁principal	-12.167
▁profanation	-12.167
▁project	-12.167
▁pruden	-12.167
▁purblind	-12.167
▁quaff	-12.167
▁ravish	-12.167
▁receiving	-12.167
▁recreation	-12.167
▁rejoicing	-12.167
▁released	-12.167
▁repeat	-12.167
▁replenish	-12.167
▁reprehend	-12.167
▁ribs	-12.167
▁ruffian	-12.167
▁runagate	-12.167
▁salutation	-12.167
▁sauce	-12.167
▁secrecy	-12.167
▁sedition	-12.167
▁selves	-12.167
▁semblance	-12.167
▁servitor	-12.167
▁shrub	-12.167
▁stories	-12.167
▁submit	-12.167
▁superstitio	-12.167
▁supremacy	-12.167
▁surcease	-12.167
▁surmise	-12.167
▁surplus	-12.167
▁testify	-12.167
▁testimonie	-12.167
▁thrall	-12.167
▁tithe	-12.167
▁topmast	-12.167
▁tortoise	-12.167
▁treasury	-12.167
▁trident	-12.167
▁trivial	-12.167
▁unbruised	-12.167
▁unconstant	-12.167
▁understood	-12.167
▁unfortunate	-12.167
▁ungrateful	-12.167
▁unload	-12.167
▁unprepared	-12.167
▁unsettled	-12.167
▁unspeakable	-12.167
▁unsway	-12.167
▁unwholesome	-12.167
▁variable	-12.167
▁venuto	-12.167
▁verified	-12.167
▁village	-12.167
▁vizard	-12.167
▁wreaths	-12.167
▁yesterday	-12.167
occup	-12.167
▁Matter	-12.167
▁fetter	-12.167
▁politic	-12.167
▁schoolboys	-12.167
▁viand	-12.167
Brutus	-12.167
ffron	-12.167
shrunk	-12.167
upturned	-12.167
▁Cotus	-12.167
▁Cytherea	-12.167
▁Despite	-12.167
▁Guilt	-12.167
▁Hungary	-12.167
▁Proportion	-12.167
▁Raise	-12.167
▁Words	-12.167
▁aediles	-12.167
▁asunder	-12.167
▁autumn	-12.167
▁brood	-12.167
▁cockerel	-12.167
▁delicious	-12.167
▁distraught	-12.167
▁effus	-12.167
▁elbow	-12.167
▁forfend	-12.167
▁gnat	-12.167
▁hypocri	-12.167
▁inciden	-12.167
▁millstones	-12.167
▁misdoubt	-12.167
▁opportun	-12.167
▁ounce	-12.167
▁prolixi	-12.167
▁renounce	-12.167
▁riot	-12.167
▁shelves	-12.167
▁shrill	-12.167
▁splinter	-12.167
▁sprang	-12.167
▁tackling	-12.167
▁tavern	-12.167
▁temporize	-12.167
▁tilth	-12.167
eject	-12.167
legg	-12.167
yrannical	-12.167
▁Broke	-12.167
▁Consort	-12.167
▁ambling	-12.167
▁barbarism	-12.167
▁carcass	-12.167
▁collar	-12.167
▁confiden	-12.167
▁determinat	-12.167
▁entail	-12.167
▁maj	-12.167
▁maw	-12.167
▁pensive	-12.167
▁perfidious	-12.167
▁retail	-12.167
▁rift	-12.167
▁shiver	-12.167
▁Present	-12.167
▁groats	-12.167
▁leash	-12.167
▁sufficiency	-12.167
▁twist	-12.167
ovato	-12.167
▁Ladies	-12.167
▁Wood	-12.167
▁consist	-12.167
▁distance	-12.167
▁impiety	-12.167
▁limp	-12.167
▁propagat	-12.167
▁valley	-12.167
Retire	-12.167
▁irks	-12.167
▁stumbling	-12.167
▁centuri	-12.167
▁pennyworth	-12.167
▁strawberries	-12.167
▁wilderness	-12.167
logic	-12.167
▁benefactors	-12.167
▁carters	-12.167
▁gallows	-12.167
▁nobody	-12.167
▁provision	-12.167
▁surviv	-12.167
▁thimble	-12.167
▁Confound	-12.167
▁lawyers	-12.167
▁mettle	-12.167
▁steer	-12.167
▁client	-12.167
▁embassage	-12.167
▁ivy	-12.167
▁Seven	-12.167
▁Court	-12.167
▁Roger	-12.167
▁genero	-12.167
▁progress	-12.167
▁temperately	-12.167
constrain	-12.167
▁Devo	-12.167
▁Err	-12.167
▁Monday	-12.167
strate	-12.167
▁drag	-12.167
▁fancies	-12.167
irectitude	-12.167
▁Royal	-12.167
▁blench	-12.167
▁extirp	-12.167
▁haggard	-12.167
▁remnant	-12.167
▁Julietta	-12.167
▁bunch	-12.167
quisite	-12.167
▁blossom	-12.167
▁disprove	-12.167
▁doubly	-12.167
▁method	-12.167
▁vapour	-12.167
▁muddy	-12.167
aucas	-12.167
▁glean	-12.167
▁impartial	-12.167
▁Prodigious	-12.167
▁crupper	-12.167
probation	-12.167
▁betroth	-12.167
swerve	-12.167
▁encouragement	-12.167
▁precept	-12.167
▁guile	-12.167
balance	-12.167
▁lump	-12.167
▁clang	-12.167
▁grievance	-12.167
▁pretend	-12.167
▁bubble	-12.167
▁wealthily	-12.167
▁cupbearer	-12.167
▁lull	-12.167
▁minim	-12.167
▁moi	-12.167
ismiss	-12.167
▁stewardship	-12.167
▁violation	-12.167
▁Prosperity	-12.167
▁daunt	-12.167
▁thwarting	-12.167
▁clusters	-12.167
hippe	-12.167
▁reproach	-12.167
▁twigs	-12.167
▁instigation	-12.167
▁instinct	-12.167
▁raising	-12.167
▁rayed	-12.167
▁impart	-12.167
▁forego	-12.167
▁slippery	-12.167
▁dallie	-12.167
▁transform	-12.167
▁impale	-12.167
▁Forbidden	-12.167
▁carbon	-12.167
▁misgive	-12.167
▁roe	-12.167
▁transgression	-12.167
▁induced	-12.167
▁woodcock	-12.167
▁Prospero	-12.167
▁Rebell	-12.167
▁halber	-12.167
▁chants	-12.167
▁suppress	-12.167
▁Split	-12.167
▁fulfilled	-12.167
▁pillow	-12.167
▁prolong	-12.167
▁Report	-12.167
▁Respect	-12.167
▁seduce	-12.167
▁universal	-12.167
▁Shut	-12.167
▁winning	-12.167
▁smock	-12.167
server	-12.167
▁Next	-12.167
▁accompanied	-12.167
▁bereave	-12.167
ducement	-12.167
leopa	-12.167
▁augment	-12.167
ehind	-12.167
▁delu	-12.1671
▁peep	-12.1671
▁pelting	-12.1671
▁stifle	-12.1671
▁Prick	-12.1671
▁distraction	-12.1671
▁gazing	-12.1671
▁hurry	-12.1671
▁stup	-12.1671
▁thigh	-12.1671
▁Water	-12.1671
▁continuance	-12.1671
▁patroness	-12.1671
▁emme	-12.1671
▁punk	-12.1671
▁disobedience	-12.1671
▁foremost	-12.1671
▁twink	-12.1671
▁meteor	-12.1671
▁defiance	-12.1671
▁invocat	-12.1671
nard	-12.1671
▁tradesmen	-12.1671
▁stair	-12.1671
▁superfluity	-12.1671
▁rigor	-12.1671
▁fraught	-12.1671
▁insolent	-12.1671
▁begnaw	-12.1671
▁sip	-12.1671
▁meek	-12.1671
▁irre	-12.1671
▁moat	-12.1671
▁currish	-12.1671
▁signified	-12.1671
▁brush	-12.1671
▁pursuivant	-12.1671
▁gentlewomen	-12.1671
▁poetry	-12.1671
ribb	-12.1671
▁fume	-12.1671
▁unthankfulness	-12.1671
▁denier	-12.1671
▁firmament	-12.1671
▁poise	-12.1671
▁privil	-12.1671
▁scarf	-12.1671
▁wedlock	-12.1671
▁tabour	-12.1671
▁Spake	-12.1671
▁fist	-12.1671
▁spawn	-12.1671
▁clergymen	-12.1671
▁statesman	-12.1671
▁jay	-12.1671
▁Eleven	-12.1671
▁unreasonabl	-12.1671
▁Short	-12.1671
▁Resign	-12.1671
▁passado	-12.1671
uities	-12.1671
odged	-12.1672
▁temporal	-12.1672
▁herdsmen	-12.1672
▁diff	-12.1672
▁echo	-12.1672
▁embo	-12.1672
▁fuel	-12.1672
▁pang	-12.1672
uggest	-12.1672
▁dawn	-12.1672
elope	-12.1672
▁justified	-12.1672
hereabouts	-12.1672
▁shearers	-12.1672
▁perver	-12.1672
ntolerable	-12.1672
▁drab	-12.1672
▁dally	-12.1672
▁Dea	-12.1672
▁spright	-12.1672
▁cele	-12.1672
▁track	-12.1672
▁scurvy	-12.1672
gawd	-12.1672
▁guiltiness	-12.1672
▁prig	-12.1672
▁protection	-12.1672
amour	-12.1672
▁stockings	-12.1672
▁pities	-12.1672
▁unskilful	-12.1672
▁unfurnish	-12.1672
▁ladder	-12.1672
▁prophetess	-12.1672
wittingly	-12.1672
▁swan	-12.1672
▁ancest	-12.1672
▁furious	-12.1673
▁Grim	-12.1673
▁station	-12.1673
▁sphere	-12.1673
▁frailty	-12.1673
▁affable	-12.1673
▁ewer	-12.1673
▁Deceive	-12.1673
▁pageant	-12.1673
▁Pass	-12.1673
▁Torment	-12.1673
▁logs	-12.1673
▁repute	-12.1673
▁palate	-12.1673
active	-12.1673
▁lightens	-12.1673
▁billet	-12.1673
▁infectious	-12.1673
▁assistant	-12.1673
▁concealment	-12.1673
olk	-12.1673
▁Peer	-12.1673
▁recomfort	-12.1673
▁lure	-12.1673
enders	-12.1673
▁assail	-12.1673
▁Gloucestershire	-12.1674
▁rice	-12.1674
▁Iniquity	-12.1674
▁Scal	-12.1674
gans	-12.1674
▁Plead	-12.1674
▁declines	-12.1674
▁minion	-12.1674
▁verily	-12.1674
▁skies	-12.1674
▁furthe	-12.1674
rakes	-12.1674
▁arbitrate	-12.1674
▁misled	-12.1674
▁swept	-12.1674
duce	-12.1674
▁spotless	-12.1674
▁peach	-12.1674
▁spray	-12.1674
▁carouse	-12.1674
ickle	-12.1674
▁coverture	-12.1674
▁admiral	-12.1675
▁squire	-12.1675
▁forged	-12.1675
▁Adrian	-12.1675
cote	-12.1675
▁sympathy	-12.1675
▁tragedy	-12.1675
▁forges	-12.1675
▁misbe	-12.1675
▁barne	-12.1675
▁penalty	-12.1675
▁undertaking	-12.1675
▁Vile	-12.1675
▁brick	-12.1675
▁invest	-12.1675
▁poet	-12.1675
▁misplace	-12.1675
▁sect	-12.1675
▁Wot	-12.1676
▁consulship	-12.1676
▁sincerity	-12.1676
▁esp	-12.1676
▁Courageous	-12.1676
▁decl	-12.1676
▁felon	-12.1676
▁successive	-12.1676
▁losing	-12.1676
▁acceptance	-12.1677
▁untru	-12.1677
▁foolery	-12.1677
▁untainted	-12.1677
▁dub	-12.1677
▁drain	-12.1677
▁durance	-12.1677
▁Scorn	-12.1677
phin	-12.1678
hequer	-12.1678
▁New	-12.1678
pointed	-12.1678
▁deity	-12.1678
▁hoarse	-12.1678
▁battlements	-12.1678
▁Despised	-12.1678
▁collected	-12.1678
▁convented	-12.1678
▁hastily	-12.1679
▁gale	-12.1679
▁vehement	-12.1679
polit	-12.1679
▁List	-12.1679
▁Redeemer	-12.1679
▁wagoner	-12.1679
▁Wise	-12.1679
ntangled	-12.1679
▁Albion	-12.1679
▁factor	-12.1679
▁quest	-12.1679
▁acre	-12.1679
▁information	-12.168
▁carver	-12.168
▁subsi	-12.168
▁southward	-12.168
▁blaz	-12.168
▁coil	-12.168
▁bathe	-12.168
▁lout	-12.168
▁House	-12.168
▁convenient	-12.168
▁mansion	-12.168
▁Yorkshire	-12.168
ipple	-12.168
▁err	-12.168
HE	-12.1681
▁curds	-12.1681
▁Poison	-12.1681
▁Nea	-12.1681
▁Flatter	-12.1681
▁Laugh	-12.1681
▁peerless	-12.1681
▁Wish	-12.1682
▁ungracious	-12.1682
▁unadvised	-12.1682
▁virginal	-12.1682
▁dirt	-12.1682
▁inches	-12.1683
whelp	-12.1683
▁hangmen	-12.1683
▁certainty	-12.1683
urther	-12.1683
▁Revolt	-12.1683
▁stoutness	-12.1683
▁religion	-12.1684
▁posture	-12.1684
▁executing	-12.1684
ump	-12.1684
▁holiday	-12.1684
▁formal	-12.1684
▁vic	-12.1684
roan	-12.1685
▁lave	-12.1685
▁Self	-12.1685
eformed	-12.1685
▁Weigh	-12.1685
▁Grief	-12.1686
ution	-12.1686
▁commendable	-12.1686
▁payment	-12.1686
▁willingness	-12.1687
▁pout	-12.1687
ildly	-12.1687
much	-12.1687
andon	-12.1687
▁smoke	-12.1688
▁Dash	-12.1688
▁indirectly	-12.1688
▁mix	-12.1688
▁emptie	-12.1688
stick	-12.1689
▁bestrew	-12.1689
uries	-12.169
▁spir	-12.169
▁butcheries	-12.169
▁shill	-12.1691
▁Dig	-12.1691
▁cal	-12.1691
▁cog	-12.1691
▁Forbid	-12.1691
▁formally	-12.1692
▁rashness	-12.1692
▁spill	-12.1692
▁mortality	-12.1692
▁customers	-12.1693
▁surety	-12.1693
▁Eng	-12.1693
▁largess	-12.1693
cannon	-12.1693
▁paw	-12.1693
▁robbery	-12.1694
eek	-12.1694
▁officious	-12.1694
▁declined	-12.1694
▁suggested	-12.1694
▁Move	-12.1694
imps	-12.1694
▁parley	-12.1694
▁attendance	-12.1694
▁Rain	-12.1694
▁Land	-12.1695
▁thwa	-12.1695
▁Maid	-12.1695
▁quarrelling	-12.1696
alty	-12.1696
▁unshape	-12.1696
▁infallible	-12.1697
▁Dogs	-12.1697
▁thankings	-12.1697
▁childhood	-12.1698
▁heretic	-12.1698
▁sportful	-12.1698
▁Four	-12.1698
▁blushes	-12.1699
▁Allow	-12.17
▁Boldly	-12.17
▁unlikely	-12.17
▁everlastingly	-12.17
▁dre	-12.1701
▁miscarried	-12.1702
▁Rise	-12.1702
▁Barn	-12.1703
▁enclose	-12.1703
▁exc	-12.1704
▁Seduc	-12.1704
ewes	-12.1704
▁forsaken	-12.1705
▁taper	-12.1705
▁discern	-12.1705
▁Simois	-12.1705
▁arraign	-12.1705
▁substantial	-12.1705
▁verdict	-12.1705
▁Sicinius	-12.1705
▁rhyme	-12.1705
▁vitae	-12.1705
▁cricket	-12.1705
▁science	-12.1705
▁vaunt	-12.1705
▁gird	-12.1705
▁Priami	-12.1706
▁buzz	-12.1706
▁borough	-12.1706
▁deserving	-12.1706
▁vouches	-12.1706
▁unite	-12.1707
▁breach	-12.1707
▁defaced	-12.1707
▁brag	-12.1707
▁rung	-12.1707
▁declin	-12.1708
▁successes	-12.1708
▁featly	-12.1708
▁Strang	-12.1708
erform	-12.1709
treat	-12.1709
▁bolted	-12.171
▁interrupted	-12.171
▁Hides	-12.171
▁expedien	-12.171
▁harp	-12.171
▁cable	-12.171
▁appease	-12.1711
clasp	-12.1711
▁lackey	-12.1711
▁Namely	-12.1712
▁lucky	-12.1712
▁monarchy	-12.1712
▁robbed	-12.1712
▁clout	-12.1712
▁descried	-12.1714
▁untaught	-12.1715
flex	-12.1715
▁quietness	-12.1715
▁audience	-12.1715
▁perch	-12.1715
▁awaking	-12.1715
▁amount	-12.1715
▁expose	-12.1715
▁hoop	-12.1716
▁flaw	-12.1716
jury	-12.1717
▁Anointed	-12.1718
oppers	-12.1718
▁Tri	-12.1718
▁panting	-12.1718
▁lowest	-12.1719
▁Consu	-12.1719
▁Few	-12.1721
▁prop	-12.1722
mony	-12.1723
hop	-12.1723
▁Cret	-12.1724
▁unwillingly	-12.1724
▁nicely	-12.1724
ux	-12.1725
tigate	-12.1725
cupboard	-12.1726
▁contrarie	-12.1726
▁dieted	-12.1726
▁lovelier	-12.1726
▁cull	-12.1728
▁negligent	-12.173
▁Rid	-12.173
▁oratory	-12.1731
▁compet	-12.1732
▁pratest	-12.1734
▁fishes	-12.1735
▁fitness	-12.1736
▁assay	-12.1736
stitution	-12.1736
▁carelessly	-12.1737
▁belonging	-12.1737
▁harmful	-12.1737
▁unclean	-12.1738
erbear	-12.1739
▁Ven	-12.1739
▁bitterest	-12.1739
▁Unse	-12.174
▁baited	-12.1741
▁arrested	-12.1741
▁compounded	-12.1741
▁rud	-12.1742
▁crosses	-12.1744
▁horseman	-12.1745
▁fun	-12.1745
▁winner	-12.1746
▁antiqu	-12.1748
▁employment	-12.1748
▁Softly	-12.1749
▁hoping	-12.1749
▁auspicious	-12.1751
urch	-12.1751
▁thriv	-12.1751
▁dough	-12.1752
▁Aim	-12.1753
▁tenor	-12.1754
▁defi	-12.1755
▁Inferr	-12.1755
pulse	-12.1756
▁Done	-12.1757
▁furnished	-12.1757
▁neglected	-12.1757
▁bull	-12.1757
▁conquered	-12.1757
▁kindle	-12.1757
▁chan	-12.1758
rget	-12.1758
▁Pla	-12.1758
▁carefully	-12.1759
▁famously	-12.1761
▁limed	-12.1763
▁Resolved	-12.1763
▁dissolved	-12.1763
▁perfumed	-12.1763
▁combined	-12.1763
▁manors	-12.1765
▁startle	-12.1766
shaft	-12.1767
▁parallel	-12.1767
▁ingratitude	-12.1767
▁assisted	-12.1768
▁stealth	-12.1768
▁husbandry	-12.1769
▁players	-12.1769
▁harden	-12.177
▁plight	-12.1771
cked	-12.1771
▁directed	-12.1773
▁creditor	-12.1774
▁fertil	-12.1776
▁va	-12.1776
bearer	-12.1778
cement	-12.1779
call	-12.1782
▁super	-12.1783
▁Sail	-12.1784
▁Need	-12.1784
edient	-12.1787
▁conn	-12.1787
▁unwa	-12.1787
judge	-12.1788
nerable	-12.1788
▁recorded	-12.1789
▁depending	-12.179
▁Rhe	-12.179
▁Earth	-12.1792
inhabitable	-12.1792
examine	-12.1793
azing	-12.1793
▁bestir	-12.1796
tress	-12.1797
ower	-12.1797
▁equally	-12.1798
▁sinner	-12.1799
▁losses	-12.1799
▁touches	-12.1804
▁Livi	-12.1805
▁cloth	-12.1806
▁hereof	-12.1806
ype	-12.1808
patent	-12.1814
▁concerning	-12.1815
▁converse	-12.1816
▁Conceive	-12.1817
topping	-12.1818
▁bleat	-12.1818
kets	-12.1819
▁admired	-12.182
▁mended	-12.1821
▁conducted	-12.1821
▁expected	-12.1821
▁metre	-12.1822
▁pret	-12.1823
▁argued	-12.1825
▁Cur	-12.1825
▁revived	-12.1825
▁decreed	-12.1827
▁Pri	-12.1831
▁clapp	-12.1831
▁grossly	-12.1835
▁mounted	-12.1837
▁contracted	-12.1838
▁punished	-12.1838
▁galled	-12.1839
▁chopp	-12.184
▁Valentin	-12.1842
▁milder	-12.1843
▁mur	-12.1845
▁entitl	-12.1845
▁formerly	-12.1847
weep	-12.1851
▁coy	-12.1852
▁instructed	-12.1854
▁ball	-12.1856
bodie	-12.1857
▁standers	-12.186
oming	-12.1861
▁dissembler	-12.1862
▁dung	-12.1865
▁gentleness	-12.1866
▁Bour	-12.1867
certainties	-12.1867
▁agreeing	-12.187
▁lamented	-12.1871
▁debate	-12.1873
▁handled	-12.1879
▁uttered	-12.1886
▁dreaded	-12.1886
▁aug	-12.1887
▁Pity	-12.1888
olum	-12.1888
▁sheet	-12.1888
serpi	-12.1888
▁waver	-12.189
▁stinging	-12.1894
screen	-12.1895
▁flattery	-12.1896
▁Sure	-12.1898
▁visitor	-12.19
▁tenth	-12.1903
▁ju	-12.1909
▁soothing	-12.191
▁fiddle	-12.1913
▁roared	-12.1918
▁shear	-12.1919
▁razed	-12.1923
▁pricking	-12.1923
▁weighing	-12.1924
▁sainted	-12.1926
▁leisurely	-12.1934
▁accounted	-12.1935
▁Den	-12.1936
haplain	-12.1938
tabb	-12.194
truck	-12.1941
▁Humbl	-12.1944
▁fixe	-12.1944
▁allied	-12.1948
▁affecting	-12.1948
▁departed	-12.1951
▁Sc	-12.1952
▁seeds	-12.1956
▁orb	-12.1957
▁hog	-12.1958
▁bended	-12.1967
▁canon	-12.1968
▁slu	-12.1969
▁camel	-12.1973
▁cage	-12.1975
▁howling	-12.1977
isit	-12.199
▁Tal	-12.201
ield	-12.2015
ndured	-12.2029
▁Unbuckl	-12.2037
nable	-12.2051
post	-12.2052
▁empir	-12.2053
▁accidental	-12.2056
▁galli	-12.2056
▁Maria	-12.2082
▁thereon	-12.2085
▁Sho	-12.2104
iments	-12.2107
tua	-12.211
temperate	-12.2114
▁petitioner	-12.2116
▁dependen	-12.2135
brie	-12.2141
aws	-12.2147
RDINA	-12.2158
have	-12.216
▁glue	-12.2165
▁liver	-12.2165
raybeard	-12.2165
▁spurr	-12.2181
judici	-12.2188
▁dainties	-12.2192
path	-12.2196
mma	-12.2202
▁pip	-12.2212
▁feeder	-12.2217
▁courser	-12.222
cata	-12.2238
▁Heart	-12.2256
woun	-12.2268
ute	-12.2275
▁desolat	-12.2277
▁fork	-12.2318
▁sob	-12.232
dash	-12.233
mmoderate	-12.2354
applied	-12.2363
▁scrape	-12.2382
▁Pierce	-12.2385
▁celebrate	-12.2385
▁distribute	-12.2385
▁Depose	-12.2387
▁pleader	-12.2387
▁Oppose	-12.2388
▁Tickle	-12.2393
▁Inclin	-12.2403
pare	-12.2406
▁je	-12.2427
▁Refuse	-12.2453
▁assemble	-12.2454
▁jou	-12.2471
▁stare	-12.2541
▁Compa	-12.2561
▁Cu	-12.258
▁Clar	-12.2599
▁unmann	-12.2618
tired	-12.2635
razed	-12.2673
eph	-12.2693
▁rubbi	-12.2742
▁Ran	-12.2759
ak	-12.2773
usty	-12.2785
zzled	-12.2817
easonable	-12.2856
▁beda	-12.2916
ities	-12.2941
▁wage	-12.2944
omb	-12.2958
▁Car	-12.2992
▁scornful	-12.3177
reach	-12.3183
state	-12.3185
▁squi	-12.3219
mity	-12.3293
▁ampl	-12.3351
▁singularit	-12.3361
▁concu	-12.3387
icul	-12.3403
rote	-12.3504
elp	-12.362
imit	-12.366
musical	-12.3679
iv	-12.3682
▁bruise	-12.3739
▁Gri	-12.3771
chan	-12.3819
▁nostr	-12.382
▁porri	-12.383
leave	-12.3841
▁sta	-12.3865
▁unhappi	-12.3907
mputation	-12.3974
Twi	-12.4011
elf	-12.4013
CH	-12.4136
cado	-12.4233
▁Honour	-12.4266
tern	-12.4317
▁psal	-12.4364
▁Whit	-12.4397
outrun	-12.44
▁reverse	-12.4451
spired	-12.4495
▁jog	-12.4512
▁pul	-12.4512
▁fitte	-12.4751
▁squ	-12.4925
▁guid	-12.4984
▁repro	-12.5068
▁lustie	-12.5094
gno	-12.5105
▁emper	-12.5323
nfranchisement	-12.5437
igma	-12.5466
▁bre	-12.5469
▁gobl	-12.5521
▁ru	-12.5546
tended	-12.561
▁inqui	-12.5702
▁mai	-12.5876
▁prog	-12.5994
abble	-12.6011
feigned	-12.6045
cian	-12.6059
urgeon	-12.6219
▁dau	-12.6305
▁marche	-12.6327
▁preserv	-12.6506
ntended	-12.6532
▁pri	-12.6702
ork	-12.6703
ok	-12.6788
▁intelligenc	-12.6834
▁reve	-12.6835
reservation	-12.6864
▁meddl	-12.689
ado	-12.6936
propertie	-12.6954
abb	-12.7105
Wind	-12.7219
▁Nu	-12.7264
reech	-12.7358
▁Lea	-12.787
▁Adopt	-12.7901
far	-12.7983
properly	-12.8052
member	-12.8113
udding	-12.8123
▁factio	-12.828
rough	-12.8281
quired	-12.8342
shaken	-12.8502
point	-12.8649
▁Smal	-12.8841
reason	-12.8876
ulate	-12.8963
tched	-12.8965
grav	-12.8981
▁si	-12.9012
inces	-12.9032
Alla	-12.9038
altering	-12.9137
ugg	-12.9207
nfused	-12.9247
▁wag	-12.9259
nymphs	-12.9387
nchors	-12.941
hests	-12.944
cup	-12.9494
manner	-12.9495
▁Mortal	-12.9558
▁acc	-12.9575
▁circl	-12.9596
▁Temper	-12.9657
oils	-12.9662
closed	-12.9664
ibel	-12.9694
▁expi	-12.9705
▁adopt	-12.9737
ursed	-12.976
▁brok	-12.978
bish	-12.9788
clining	-12.9858
▁confu	-12.9933
azzle	-12.9941
ched	-12.9964
▁assembl	-12.9995
▁Oppos	-13.0027
▁Depos	-13.0028
treading	-13.0031
▁distribut	-13.0032
▁celebrat	-13.0032
▁Pierc	-13.0034
▁Pi	-13.0034
▁scrap	-13.0039
▁Tickl	-13.004
▁Refus	-13.0046
▁consum	-13.0066
moderately	-13.0099
▁conc	-13.0105
quarters	-13.0106
▁appli	-13.0205
claps	-13.0207
▁Heav	-13.0255
solation	-13.0259
ax	-13.026
▁Immediate	-13.0271
doubled	-13.0348
ustom	-13.0369
rags	-13.0386
▁Peda	-13.0427
▁dainti	-13.0441
▁apo	-13.0567
vassals	-13.0567
ssemble	-13.0587
▁chok	-13.0601
woman	-13.065
▁sacrific	-13.0695
▁presag	-13.0701
buckle	-13.071
risto	-13.0732
mpire	-13.0757
▁rescu	-13.0766
▁Exp	-13.0768
▁dedicat	-13.0778
▁importun	-13.0778
▁Endu	-13.0799
physics	-13.0803
zzle	-13.0805
egal	-13.0811
ufficeth	-13.0865
oze	-13.0911
speeding	-13.0978
proof	-13.0979
▁Beau	-13.1003
umbling	-13.1006
▁chapl	-13.1014
▁Stab	-13.1043
▁Marc	-13.1054
▁figur	-13.1063
iddler	-13.1073
off	-13.1074
ngelica	-13.1111
iling	-13.1136
oint	-13.1149
▁purchas	-13.1149
▁char	-13.1152
fined	-13.1152
▁requir	-13.1161
title	-13.1166
▁unloo	-13.1188
▁ambus	-13.1188
▁adj	-13.1192
arch	-13.1206
aunts	-13.1227
▁Valenti	-13.1242
ecute	-13.1243
▁imitat	-13.1266
ecutor	-13.1268
▁debat	-13.1289
▁ambi	-13.1296
▁comp	-13.1302
▁Env	-13.1304
ient	-13.1308
served	-13.1326
▁repos	-13.1336
ouched	-13.1343
ception	-13.1344
▁unroo	-13.1355
▁discomf	-13.1357
▁Tyr	-13.1364
▁chari	-13.137
firm	-13.1382
▁privileg	-13.1388
ertile	-13.1404
amed	-13.141
meats	-13.1413
vention	-13.1419
cape	-13.142
▁prov	-13.1423
▁Gallo	-13.1428
ou	-13.1432
pron	-13.1439
utually	-13.1449
efied	-13.1453
iquity	-13.1463
obeys	-13.1466
nfusion	-13.1468
mount	-13.1482
▁extra	-13.1489
echery	-13.1491
waking	-13.1494
aught	-13.1495
▁conserve	-13.1498
▁minstrel	-13.1498
▁ducat	-13.1498
▁orphan	-13.1498
▁pike	-13.1498
▁Turk	-13.1498
▁sprite	-13.1498
▁exclaim	-13.15
broad	-13.15
▁Whi	-13.1503
▁institut	-13.1504
▁statute	-13.151
▁kite	-13.151
awdry	-13.151
▁miscarr	-13.1512
▁carna	-13.1517
▁patrician	-13.1517
▁senator	-13.1519
▁alway	-13.1521
▁thi	-13.1525
aliciously	-13.1526
▁Requi	-13.1527
▁contrari	-13.1527
hoop	-13.1529
ishonourable	-13.1533
face	-13.1537
▁accomp	-13.1537
bility	-13.1537
mitiga	-13.154
roperly	-13.1545
isses	-13.1545
allia	-13.1546
barbe	-13.1549
uspicious	-13.1551
retches	-13.1552
udience	-13.1555
corn	-13.156
▁promis	-13.1562
pendent	-13.1563
ttorney	-13.1566
avours	-13.1568
poli	-13.1569
ccomplish	-13.157
chieve	-13.157
noble	-13.1571
xposed	-13.1573
dvocate	-13.1573
cheque	-13.1575
pprehend	-13.1576
ction	-13.1576
ccident	-13.1577
j	-13.1583
Q	-14.4915
J	-14.4916
q	-14.4917
U	-14.4918
u	-14.4919
